<pad>	0
<unk>	0
<s>	0
</s>	0
▁t	-0
he	-1
▁a	-2
in	-3
▁s	-4
▁the	-5
▁w	-6
re	-7
▁o	-8
nd	-9
ou	-10
er	-11
▁h	-12
▁m	-13
▁b	-14
at	-15
it	-16
ing	-17
▁f	-18
▁and	-19
is	-20
▁c	-21
on	-22
ed	-23
en	-24
▁to	-25
es	-26
▁d	-27
▁of	-28
or	-29
▁l	-30
as	-31
▁p	-32
an	-33
▁th	-34
▁in	-35
ll	-36
ar	-37
▁he	-38
▁I	-39
▁n	-40
om	-41
▁y	-42
▁g	-43
ot	-44
le	-45
ow	-46
▁be	-47
ut	-48
▁e	-49
▁you	-50
ad	-51
ve	-52
ic	-53
im	-54
ly	-55
gh	-56
se	-57
al	-58
▁on	-59
st	-60
ld	-61
▁T	-62
et	-63
▁u	-64
ent	-65
ith	-66
id	-67
▁wh	-68
▁it	-69
▁was	-70
▁that	-71
ay	-72
ce	-73
▁st	-74
▁with	-75
ion	-76
▁re	-77
ver	-78
▁his	-79
▁.	-80
ir	-81
▁A	-82
ch	-83
ro	-84
▁for	-85
▁not	-86
▁as	-87
ri	-88
ght	-89
▁is	-90
▁The	-91
oo	-92
▁ha	-93
▁at	-94
ur	-95
▁me	-96
▁we	-97
▁"	-98
her	-99
am	-100
ct	-101
▁an	-102
▁sh	-103
▁my	-104
ter	-105
ra	-106
▁her	-107
ke	-108
▁se	-109
▁S	-110
▁him	-111
▁H	-112
ould	-113
▁li	-114
▁had	-115
▁“	-116
ill	-117
ess	-118
▁all	-119
ov	-120
ome	-121
..	-122
all	-123
ain	-124
▁su	-125
▁de	-126
il	-127
▁W	-128
ore	-129
▁so	-130
rom	-131
th	-132
and	-133
red	-134
ol	-135
▁k	-136
▁but	-137
if	-138
ck	-139
pe	-140
▁or	-141
▁r	-142
▁v	-143
▁con	-144
▁up	-145
▁have	-146
▁from	-147
ul	-148
▁are	-149
▁she	-150
▁sa	-151
▁do	-152
ers	-153
ge	-154
ant	-155
▁by	-156
res	-157
ard	-158
ble	-159
est	-160
ation	-161
▁P	-162
ist	-163
em	-164
ong	-165
▁And	-166
ous	-167
▁B	-168
▁He	-169
qu	-170
▁ex	-171
us	-172
▁al	-173
▁M	-174
ast	-175
pp	-176
out	-177
od	-178
--	-179
▁whe	-180
el	-181
▁O	-182
sel	-183
ust	-184
ight	-185
our	-186
▁were	-187
king	-188
▁ne	-189
um	-190
ough	-191
very	-192
▁man	-193
▁int	-194
▁ch	-195
un	-196
▁them	-197
▁they	-198
▁one	-199
ich	-200
ig	-201
ive	-202
▁your	-203
ood	-204
▁out	-205
ind	-206
▁R	-207
▁kn	-208
one	-209
▁no	-210
▁un	-211
os	-212
▁who	-213
self	-214
ame	-215
▁wor	-216
ound	-217
ell	-218
ked	-219
▁le	-220
fe	-221
▁there	-222
ate	-223
▁ab	-224
▁N	-225
▁fa	-226
▁their	-227
▁com	-228
▁which	-229
art	-230
▁am	-231
▁F	-232
▁would	-233
▁Y	-234
▁this	-235
▁go	-236
▁loo	-237
ven	-238
own	-239
hing	-240
▁what	-241
ie	-242
▁L	-243
ap	-244
ep	-245
ity	-246
hat	-247
▁D	-248
nt	-249
ass	-250
▁ta	-251
▁j	-252
op	-253
reat	-254
ure	-255
▁ro	-256
▁into	-257
itt	-258
ry	-259
▁said	-260
nder	-261
▁some	-262
▁ag	-263
itch	-264
ide	-265
▁pro	-266
▁sp	-267
ther	-268
ice	-269
ies	-270
▁C	-271
hed	-272
ort	-273
▁can	-274
▁too	-275
▁like	-276
▁tim	-277
la	-278
pt	-279
other	-280
▁know	-281
▁been	-282
▁will	-283
▁G	-284
way	-285
▁could	-286
ost	-287
▁fe	-288
▁ma	-289
▁ar	-290
na	-291
ress	-292
▁see	-293
▁qu	-294
!"	-295
ik	-296
au	-297
▁fl	-298
ought	-299
▁(	-300
ine	-301
▁im	-302
▁af	-303
ud	-304
▁more	-305
▁cl	-306
ove	-307
▁beg	-308
▁now	-309
ance	-310
▁But	-311
▁when	-312
▁over	-313
▁about	-314
▁tw	-315
."	-316
▁us	-317
wn	-318
ose	-319
urn	-320
▁E	-321
▁pe	-322
▁hand	-323
ia	-324
▁It	-325
▁tr	-326
ars	-327
▁day	-328
▁co	-329
▁any	-330
▁off	-331
▁did	-332
▁under	-333
ak	-334
.”	-335
ence	-336
fore	-337
▁time	-338
ile	-339
ag	-340
ci	-341
▁very	-342
bl	-343
▁then	-344
are	-345
▁long	-346
ite	-347
▁other	-348
▁dis	-349
ally	-350
▁str	-351
▁down	-352
ings	-353
▁again	-354
▁how	-355
▁say	-356
ment	-357
▁has	-358
▁only	-359
,"	-360
ree	-361
▁br	-362
▁every	-363
ittle	-364
te	-365
▁ey	-366
ave	-367
ness	-368
▁gr	-369
▁bl	-370
iv	-371
ount	-372
▁little	-373
ions	-374
▁sm	-375
▁sc	-376
▁if	-377
ade	-378
age	-379
per	-380
ks	-381
▁ac	-382
▁pr	-383
ull	-384
ack	-385
▁come	-386
able	-387
ft	-388
▁thought	-389
ild	-390
▁po	-391
▁went	-392
▁before	-393
we	-394
hen	-395
oy	-396
ue	-397
▁great	-398
ab	-399
▁thr	-400
▁Th	-401
,”	-402
ach	-403
▁though	-404
ather	-405
omet	-406
ang	-407
▁than	-408
▁You	-409
▁ad	-410
?”	-411
ish	-412
▁per	-413
▁K	-414
▁te	-415
▁where	-416
ise	-417
▁comp	-418
av	-419
ac	-420
?"	-421
▁en	-422
▁ra	-423
▁eyes	-424
ark	-425
▁In	-426
ty	-427
▁after	-428
▁face	-429
▁pl	-430
ried	-431
ren	-432
ink	-433
▁gl	-434
ikov	-435
▁old	-436
▁even	-437
▁should	-438
erv	-439
▁des	-440
ath	-441
...	-442
▁upon	-443
▁here	-444
ful	-445
right	-446
ious	-447
tain	-448
▁cr	-449
ary	-450
▁She	-451
▁must	-452
▁such	-453
ip	-454
ward	-455
▁good	-456
ady	-457
▁spe	-458
▁fir	-459
ated	-460
ka	-461
hes	-462
nikov	-463
ons	-464
▁dr	-465
▁pass	-466
▁somet	-467
ign	-468
▁shall	-469
▁two	-470
ask	-471
▁life	-472
▁fo	-473
ire	-474
ater	-475
ovna	-476
▁our	-477
less	-478
▁head	-479
ors	-480
ick	-481
orn	-482
▁himself	-483
▁own	-484
▁made	-485
ff	-486
ect	-487
▁cont	-488
▁part	-489
ng	-490
igh	-491
oman	-492
van	-493
▁nothing	-494
▁room	-495
▁rem	-496
ber	-497
▁without	-498
pl	-499
▁its	-500
here	-501
▁back	-502
▁V	-503
▁looked	-504
▁Wh	-505
uch	-506
askol	-507
askolnikov	-508
▁began	-509
▁away	-510
▁turn	-511
▁way	-512
▁came	-513
▁Raskolnikov	-514
▁ind	-515
▁seem	-516
az	-517
▁get	-518
▁through	-519
▁word	-520
▁don	-521
▁still	-522
old	-523
ople	-524
▁ob	-525
▁these	-526
ened	-527
ting	-528
▁pre	-529
co	-530
ces	-531
ows	-532
▁ye	-533
cl	-534
ily	-535
▁put	-536
▁bet	-537
▁something	-538
▁well	-539
▁may	-540
▁once	-541
rie	-542
▁em	-543
▁last	-544
▁just	-545
▁ear	-546
▁res	-547
ya	-548
▁let	-549
!”	-550
ha	-551
▁On	-552
▁first	-553
ations	-554
ock	-555
▁people	-556
den	-557
ouse	-558
▁Ivan	-559
led	-560
▁imp	-561
rov	-562
ms	-563
▁wal	-564
▁same	-565
....	-566
ced	-567
ans	-568
▁To	-569
▁bec	-570
▁want	-571
ens	-572
ied	-573
▁ke	-574
▁night	-575
ase	-576
▁underst	-577
▁much	-578
▁bel	-579
oss	-580
▁wind	-581
▁They	-582
▁dist	-583
▁_	-584
for	-585
thing	-586
▁those	-587
▁child	-588
be	-589
▁There	-590
▁tal	-591
▁op	-592
▁acc	-593
air	-594
▁love	-595
pect	-596
▁wa	-597
▁make	-598
▁myself	-599
▁might	-600
ru	-601
▁young	-602
iz	-603
▁Pet	-604
▁cons	-605
▁never	-606
▁What	-607
▁take	-608
ult	-609
▁sou	-610
▁tell	-611
ute	-612
leep	-613
ord	-614
ertain	-615
og	-616
▁app	-617
oun	-618
ory	-619
ving	-620
▁cour	-621
▁while	-622
▁vo	-623
▁For	-624
▁stand	-625
ps	-626
▁pers	-627
hin	-628
man	-629
ict	-630
▁hands	-631
ool	-632
ause	-633
ating	-634
oud	-635
vers	-636
▁men	-637
▁car	-638
▁When	-639
▁wr	-640
▁mat	-641
▁light	-642
▁right	-643
▁yet	-644
▁another	-645
▁nor	-646
▁heart	-647
oth	-648
▁ent	-649
▁look	-650
▁sl	-651
▁mother	-652
▁understand	-653
elt	-654
fect	-655
▁far	-656
▁min	-657
What	-658
ning	-659
▁feel	-660
▁woman	-661
int	-662
ible	-663
ical	-664
day	-665
▁count	-666
ret	-667
aster	-668
▁bo	-669
ways	-670
▁three	-671
ves	-672
▁looking	-673
ken	-674
▁house	-675
▁give	-676
dden	-677
ition	-678
iness	-679
▁many	-680
▁took	-681
▁dre	-682
▁happ	-683
▁ap	-684
ject	-685
▁lau	-686
▁think	-687
▁tra	-688
▁door	-689
ial	-690
▁pla	-691
▁."	-692
▁call	-693
▁sil	-694
act	-695
cess	-696
▁mod	-697
▁seemed	-698
riend	-699
▁sudden	-700
ere	-701
▁cle	-702
▁end	-703
▁got	-704
iss	-705
ange	-706
▁pres	-707
vid	-708
▁work	-709
gg	-710
ew	-711
▁ans	-712
▁inst	-713
get	-714
▁saw	-715
▁mar	-716
▁exp	-717
▁soul	-718
ank	-719
▁God	-720
▁gra	-721
▁friend	-722
▁dark	-723
ss	-724
▁being	-725
▁Petrov	-726
aw	-727
▁air	-728
ple	-729
ener	-730
▁always	-731
▁rest	-732
▁round	-733
ash	-734
20	-735
You	-736
▁left	-737
▁asked	-738
▁going	-739
▁voice	-740
▁set	-741
ved	-742
ife	-743
mer	-744
▁most	-745
ared	-746
▁sat	-747
▁bed	-748
▁home	-749
**	-750
▁felt	-751
▁high	-752
▁each	-753
ace	-754
▁As	-755
▁whole	-756
ling	-757
ix	-758
ctor	-759
▁gre	-760
▁sim	-761
inking	-762
▁ple	-763
▁hu	-764
▁new	-765
hy	-766
ying	-767
oment	-768
▁U	-769
▁dif	-770
▁We	-771
▁bre	-772
ky	-773
▁read	-774
▁del	-775
aps	-776
▁mon	-777
▁fell	-778
ched	-779
▁moment	-780
▁His	-781
▁pol	-782
most	-783
▁land	-784
▁sw	-785
▁years	-786
ently	-787
▁rel	-788
oney	-789
arm	-790
▁comm	-791
▁sing	-792
▁earth	-793
les	-794
▁mind	-795
ering	-796
▁ret	-797
▁This	-798
ian	-799
wards	-800
vel	-801
▁bu	-802
▁conf	-803
ross	-804
▁red	-805
▁tre	-806
▁heard	-807
▁ass	-808
▁sun	-809
▁ever	-810
▁table	-811
▁Son	-812
▁suddenly	-813
▁An	-814
ense	-815
▁bro	-816
▁thy	-817
▁why	-818
▁That	-819
▁thing	-820
cy	-821
▁beh	-822
▁belie	-823
▁vis	-824
▁sleep	-825
ual	-826
ner	-827
▁St	-828
▁hear	-829
▁serv	-830
form	-831
▁money	-832
atch	-833
▁cap	-834
▁fore	-835
pped	-836
▁inter	-837
ook	-838
▁remem	-839
ev	-840
ush	-841
▁ho	-842
▁J	-843
ale	-844
▁che	-845
▁dra	-846
▁stood	-847
▁At	-848
ents	-849
▁gave	-850
▁appe	-851
▁stre	-852
▁world	-853
▁sin	-854
▁side	-855
▁Sonia	-856
▁How	-857
▁because	-858
ered	-859
its	-860
rig	-861
▁hal	-862
▁att	-863
owed	-864
▁dec	-865
up	-866
bles	-867
ever	-868
ities	-869
cept	-870
ction	-871
ully	-872
▁Z	-873
▁hour	-874
ond	-875
▁obs	-876
ower	-877
rib	-878
▁hor	-879
of	-880
ted	-881
▁death	-882
▁found	-883
▁place	-884
the	-885
▁All	-886
▁sur	-887
▁ter	-888
▁things	-889
▁children	-890
owing	-891
rent	-892
▁inde	-893
ub	-894
▁ill	-895
▁unc	-896
ither	-897
▁list	-898
II	-899
ined	-900
▁words	-901
▁does	-902
▁add	-903
▁el	-904
ants	-905
xt	-906
▁hon	-907
▁turned	-908
▁inv	-909
▁model	-910
ody	-911
▁dro	-912
ets	-913
▁ord	-914
ught	-915
▁reas	-916
▁ins	-917
▁find	-918
▁father	-919
▁Ivanovna	-920
gs	-921
ates	-922
▁rep	-923
▁wife	-924
▁cried	-925
▁gener	-926
▁nat	-927
ten	-928
▁inc	-929
▁ref	-930
▁open	-931
▁sub	-932
rying	-933
irl	-934
▁My	-935
▁Of	-936
▁wait	-937
▁half	-938
▁course	-939
▁lo	-940
▁lay	-941
ake	-942
uth	-943
ihin	-944
▁swe	-945
▁supp	-946
▁'	-947
ics	-948
ung	-949
▁soon	-950
▁With	-951
ised	-952
▁sound	-953
▁1	-954
▁hum	-955
▁Petrovitch	-956
ird	-957
▁gu	-958
▁master	-959
umihin	-960
It	-961
haps	-962
▁art	-963
▁near	-964
itting	-965
▁quest	-966
ery	-967
▁If	-968
▁Ye	-969
▁Raz	-970
▁ste	-971
▁Razumihin	-972
so	-973
▁stud	-974
▁days	-975
ins	-976
row	-977
▁both	-978
▁told	-979
aking	-980
▁almost	-981
con	-982
aring	-983
ier	-984
iven	-985
▁mean	-986
▁seen	-987
▁foll	-988
▁till	-989
ures	-990
ween	-991
aut	-992
▁Nik	-993
tered	-994
ract	-995
▁met	-996
▁believe	-997
▁sea	-998
▁thee	-999
▁shout	-1000
▁better	-1001
▁fr	-1002
▁used	-1003
▁certain	-1004
ased	-1005
▁inf	-1006
ister	-1007
▁hold	-1008
▁reason	-1009
ounia	-1010
▁keep	-1011
▁sign	-1012
not	-1013
▁doctor	-1014
▁country	-1015
▁hel	-1016
▁fall	-1017
▁alone	-1018
▁against	-1019
men	-1020
mit	-1021
▁white	-1022
als	-1023
fully	-1024
ressed	-1025
▁between	-1026
otr	-1027
ific	-1028
▁reg	-1029
▁poss	-1030
XX	-1031
▁aw	-1032
▁among	-1033
▁return	-1034
ib	-1035
gether	-1036
ield	-1037
▁boy	-1038
▁fact	-1039
ired	-1040
▁bus	-1041
▁Dounia	-1042
oved	-1043
ndred	-1044
▁Then	-1045
▁dear	-1046
▁sn	-1047
▁together	-1048
ey	-1049
▁‘	-1050
ene	-1051
ular	-1052
yotr	-1053
ready	-1054
oke	-1055
▁full	-1056
▁town	-1057
▁water	-1058
▁indeed	-1059
sh	-1060
▁par	-1061
▁hundred	-1062
fter	-1063
▁ang	-1064
▁ir	-1065
▁sy	-1066
▁run	-1067
ining	-1068
▁knew	-1069
▁real	-1070
▁already	-1071
urd	-1072
use	-1073
▁kind	-1074
▁speak	-1075
uck	-1076
▁person	-1077
gr	-1078
that	-1079
▁imm	-1080
▁need	-1081
▁contin	-1082
lex	-1083
ately	-1084
▁play	-1085
▁observ	-1086
▁strange	-1087
ished	-1088
▁care	-1089
▁hard	-1090
ital	-1091
▁form	-1092
▁minute	-1093
Yes	-1094
ides	-1095
▁done	-1096
▁morn	-1097
▁Pyotr	-1098
▁anything	-1099
▁Ch	-1100
▁dead	-1101
iew	-1102
vern	-1103
ts	-1104
ots	-1105
▁help	-1106
▁diffe	-1107
ude	-1108
▁lar	-1109
▁sort	-1110
The	-1111
oon	-1112
▁pri	-1113
▁feet	-1114
▁everything	-1115
ina	-1116
ured	-1117
▁yes	-1118
▁gent	-1119
▁girl	-1120
▁20	-1121
▁law	-1122
ments	-1123
room	-1124
▁hus	-1125
▁sent	-1126
ump	-1127
▁mid	-1128
▁less	-1129
▁dream	-1130
▁walked	-1131
ah	-1132
lack	-1133
land	-1134
▁breat	-1135
▁yourself	-1136
owd	-1137
▁joy	-1138
pr	-1139
▁dep	-1140
▁sch	-1141
▁whom	-1142
kes	-1143
▁ide	-1144
▁gone	-1145
▁along	-1146
▁point	-1147
▁really	-1148
▁herself	-1149
iled	-1150
omen	-1151
▁fam	-1152
▁flo	-1153
▁pur	-1154
And	-1155
aught	-1156
▁sever	-1157
ices	-1158
▁stra	-1159
▁strong	-1160
▁brother	-1161
uri	-1162
cing	-1163
tend	-1164
▁ext	-1165
▁step	-1166
utter	-1167
ably	-1168
▁rou	-1169
▁tri	-1170
cial	-1171
▁Why	-1172
▁ran	-1173
pping	-1174
▁drun	-1175
▁ri	-1176
ited	-1177
airs	-1178
▁fin	-1179
ards	-1180
▁big	-1181
▁pos	-1182
▁laugh	-1183
▁morning	-1184
iry	-1185
▁Be	-1186
ages	-1187
▁dire	-1188
▁express	-1189
▁lear	-1190
▁several	-1191
ply	-1192
▁bra	-1193
▁begin	-1194
ively	-1195
▁body	-1196
▁forg	-1197
▁won	-1198
asure	-1199
ousand	-1200
▁Andre	-1201
▁blood	-1202
▁times	-1203
▁window	-1204
▁sitting	-1205
fa	-1206
ern	-1207
▁No	-1208
▁arm	-1209
▁answ	-1210
selves	-1211
enty	-1212
▁others	-1213
▁perhaps	-1214
amp	-1215
▁sit	-1216
),	-1217
ches	-1218
▁also	-1219
▁compan	-1220
▁thousand	-1221
ime	-1222
▁pu	-1223
▁Not	-1224
▁five	-1225
ention	-1226
▁offic	-1227
iver	-1228
▁gentle	-1229
ually	-1230
▁black	-1231
▁quite	-1232
▁behind	-1233
ines	-1234
▁bes	-1235
▁war	-1236
▁live	-1237
▁After	-1238
▁dri	-1239
▁school	-1240
▁remember	-1241
lov	-1242
▁name	-1243
▁brought	-1244
osed	-1245
▁cond	-1246
▁conv	-1247
▁expl	-1248
▁four	-1249
▁mist	-1250
▁cross	-1251
▁One	-1252
▁use	-1253
▁Where	-1254
▁thinking	-1255
aves	-1256
▁ask	-1257
wered	-1258
▁past	-1259
ovitch	-1260
▁standing	-1261
▁present	-1262
by	-1263
ee	-1264
Why	-1265
▁ten	-1266
▁clear	-1267
▁taken	-1268
▁women	-1269
▁ground	-1270
▁answered	-1271
▁spir	-1272
ils	-1273
cious	-1274
▁visit	-1275
▁called	-1276
ati	-1277
▁es	-1278
▁cor	-1279
▁fan	-1280
▁says	-1281
▁beaut	-1282
▁matter	-1283
imes	-1284
▁crowd	-1285
ceiv	-1286
▁val	-1287
▁char	-1288
aint	-1289
band	-1290
outh	-1291
▁song	-1292
cond	-1293
▁Now	-1294
▁wall	-1295
▁Father	-1296
ged	-1297
ains	-1298
▁talk	-1299
▁wood	-1300
▁often	-1301
aï	-1302
to	-1303
ats	-1304
▁Do	-1305
ening	-1306
▁cold	-1307
▁suff	-1308
▁cannot	-1309
▁ser	-1310
▁evening	-1311
▁ed	-1312
iling	-1313
▁least	-1314
▁sister	-1315
du	-1316
eas	-1317
aven	-1318
tern	-1319
▁thou	-1320
▁given	-1321
cc	-1322
ising	-1323
▁kept	-1324
▁whis	-1325
▁Andrey	-1326
▁feeling	-1327
,)	-1328
ape	-1329
ison	-1330
▁cur	-1331
▁hur	-1332
▁draw	-1333
▁leave	-1334
No	-1335
▁maj	-1336
▁Here	-1337
▁disc	-1338
▁different	-1339
kin	-1340
▁wo	-1341
▁rec	-1342
▁else	-1343
▁appro	-1344
▁husband	-1345
).	-1346
tle	-1347
amet	-1348
olog	-1349
▁bar	-1350
▁since	-1351
ief	-1352
▁trans	-1353
▁honour	-1354
▁det	-1355
▁pap	-1356
erest	-1357
▁close	-1358
▁mount	-1359
▁roubles	-1360
ads	-1361
▁So	-1362
ility	-1363
▁free	-1364
▁soft	-1365
▁true	-1366
gn	-1367
emy	-1368
amed	-1369
▁ship	-1370
raid	-1371
▁abs	-1372
▁From	-1373
▁deep	-1374
▁lady	-1375
▁next	-1376
▁drink	-1377
▁second	-1378
▁account	-1379
▁talking	-1380
▁[	-1381
alth	-1382
▁sum	-1383
▁prop	-1384
▁small	-1385
uc	-1386
▁act	-1387
▁Roman	-1388
▁within	-1389
▁whether	-1390
▁Sh	-1391
rist	-1392
▁dev	-1393
▁exc	-1394
▁mer	-1395
▁enough	-1396
▁perfect	-1397
▁heav	-1398
▁smile	-1399
▁hast	-1400
▁watch	-1401
But	-1402
▁sec	-1403
▁Dmit	-1404
aterina	-1405
▁question	-1406
▁3	-1407
▁view	-1408
▁above	-1409
▁wanted	-1410
▁six	-1411
▁Alex	-1412
▁show	-1413
▁afraid	-1414
▁having	-1415
ues	-1416
▁ph	-1417
▁fur	-1418
▁exam	-1419
▁murd	-1420
▁passed	-1421
He	-1422
▁corn	-1423
▁simply	-1424
ging	-1425
▁Nor	-1426
▁short	-1427
▁interest	-1428
▁Katerina	-1429
ives	-1430
▁adv	-1431
▁mis	-1432
aïlov	-1433
ching	-1434
vidrig	-1435
vidrigaïlov	-1436
hn	-1437
me	-1438
▁Rod	-1439
▁hair	-1440
▁expect	-1441
▁towards	-1442
ata	-1443
▁lost	-1444
ror	-1445
fort	-1446
lect	-1447
▁var	-1448
atter	-1449
ident	-1450
▁year	-1451
▁coming	-1452
▁Svidrigaïlov	-1453
cks	-1454
uss	-1455
anger	-1456
where	-1457
▁foot	-1458
▁large	-1459
oc	-1460
uz	-1461
iet	-1462
orf	-1463
▁tea	-1464
orrow	-1465
orfiry	-1466
▁fright	-1467
▁business	-1468
vey	-1469
bling	-1470
▁poor	-1471
uttered	-1472
empt	-1473
asant	-1474
▁lying	-1475
▁partic	-1476
ems	-1477
oving	-1478
▁din	-1479
▁best	-1480
▁majest	-1481
ike	-1482
ring	-1483
▁loud	-1484
▁field	-1485
▁living	-1486
▁Or	-1487
▁Her	-1488
▁whose	-1489
▁fellow	-1490
▁letter	-1491
▁Porfiry	-1492
▁silence	-1493
▁bring	-1494
▁direct	-1495
bt	-1496
▁Al	-1497
▁horse	-1498
▁sight	-1499
ressing	-1500
▁appear	-1501
ained	-1502
rence	-1503
▁pray	-1504
▁ought	-1505
▁themselves	-1506
ek	-1507
che	-1508
gth	-1509
▁fear	-1510
▁sweet	-1511
▁tears	-1512
bs	-1513
irt	-1514
▁emb	-1515
nding	-1516
▁itself	-1517
ric	-1518
unt	-1519
▁col	-1520
▁sto	-1521
uring	-1522
ution	-1523
▁city	-1524
▁pain	-1525
▁few	-1526
terday	-1527
▁answer	-1528
▁street	-1529
▁squ	-1530
orses	-1531
▁kiss	-1532
▁pale	-1533
▁sure	-1534
▁glass	-1535
▁power	-1536
utes	-1537
▁cal	-1538
▁drunk	-1539
▁month	-1540
▁silent	-1541
ph	-1542
▁sk	-1543
resh	-1544
ature	-1545
▁king	-1546
▁models	-1547
▁Mi	-1548
▁gaz	-1549
▁num	-1550
ative	-1551
conom	-1552
▁arms	-1553
▁fing	-1554
▁later	-1555
▁comple	-1556
ourn	-1557
▁cre	-1558
▁human	-1559
Oh	-1560
▁ve	-1561
▁mus	-1562
ality	-1563
ushed	-1564
▁desc	-1565
▁lips	-1566
▁meet	-1567
▁observed	-1568
aid	-1569
▁bit	-1570
▁sky	-1571
▁desp	-1572
▁repe	-1573
▁creat	-1574
▁wonder	-1575
▁et	-1576
ural	-1577
▁Well	-1578
▁prin	-1579
iously	-1580
overed	-1581
▁X	-1582
cul	-1583
asha	-1584
iful	-1585
▁dou	-1586
.,	-1587
ider	-1588
▁cir	-1589
▁dinner	-1590
Well	-1591
▁tou	-1592
▁imag	-1593
▁reco	-1594
▁sens	-1595
▁carri	-1596
▁object	-1597
▁spirit	-1598
▁twenty	-1599
▁uncertain	-1600
▁2	-1601
▁Is	-1602
▁peace	-1603
▁horses	-1604
▁making	-1605
ges	-1606
gor	-1607
▁Who	-1608
ances	-1609
▁publ	-1610
▁saying	-1611
▁By	-1612
nded	-1613
arent	-1614
othes	-1615
▁case	-1616
▁rather	-1617
ead	-1618
▁ru	-1619
▁yesterday	-1620
▁ev	-1621
▁div	-1622
▁glo	-1623
▁lod	-1624
▁idea	-1625
▁trou	-1626
▁family	-1627
▁taking	-1628
ceed	-1629
▁eat	-1630
▁low	-1631
▁prom	-1632
▁majesty	-1633
sp	-1634
mat	-1635
▁lad	-1636
▁opp	-1637
▁kill	-1638
▁truth	-1639
akov	-1640
arch	-1641
aving	-1642
▁gard	-1643
▁mark	-1644
▁mouth	-1645
▁respect	-1646
edi	-1647
▁Le	-1648
ledge	-1649
▁chur	-1650
▁fill	-1651
▁These	-1652
wh	-1653
dle	-1654
ghed	-1655
▁fre	-1656
inary	-1657
▁slow	-1658
▁walk	-1659
▁court	-1660
▁shouted	-1661
rel	-1662
rible	-1663
▁fast	-1664
▁trem	-1665
▁convers	-1666
osp	-1667
That	-1668
▁mil	-1669
▁pock	-1670
▁sick	-1671
▁quick	-1672
▁secret	-1673
ban	-1674
ency	-1675
▁equ	-1676
▁mad	-1677
▁occ	-1678
ously	-1679
▁arri	-1680
▁Nikol	-1681
▁polic	-1682
▁breath	-1683
▁econom	-1684
ahoo	-1685
▁fun	-1686
ivers	-1687
▁fool	-1688
ceived	-1689
▁cut	-1690
▁Anna	-1691
▁auth	-1692
ically	-1693
▁asleep	-1694
▁govern	-1695
head	-1696
idly	-1697
▁son	-1698
▁floor	-1699
▁shore	-1700
▁Alexand	-1701
rupt	-1702
▁mot	-1703
▁tor	-1704
▁diff	-1705
▁fire	-1706
▁stay	-1707
▁syst	-1708
though	-1709
▁bound	-1710
▁ready	-1711
▁nature	-1712
bed	-1713
ries	-1714
▁common	-1715
▁happened	-1716
_,	-1717
ga	-1718
ger	-1719
irty	-1720
▁cra	-1721
ading	-1722
▁evid	-1723
▁wild	-1724
used	-1725
itude	-1726
▁anim	-1727
▁Christ	-1728
▁delight	-1729
bled	-1730
▁road	-1731
▁stru	-1732
▁comes	-1733
▁super	-1734
▁getting	-1735
ned	-1736
ont	-1737
▁lim	-1738
▁sol	-1739
▁tem	-1740
ushka	-1741
▁move	-1742
▁prev	-1743
▁pull	-1744
▁weak	-1745
▁order	-1746
▁waiting	-1747
ail	-1748
cell	-1749
▁fif	-1750
▁hat	-1751
▁process	-1752
How	-1753
ott	-1754
▁ce	-1755
▁ago	-1756
Yahoo	-1757
ffect	-1758
▁able	-1759
▁general	-1760
br	-1761
ized	-1762
▁Yef	-1763
▁mine	-1764
▁service	-1765
▁possible	-1766
orm	-1767
▁Ex	-1768
angu	-1769
chen	-1770
▁fig	-1771
ritch	-1772
▁curi	-1773
▁flat	-1774
▁sigh	-1775
▁sold	-1776
▁start	-1777
▁church	-1778
.)	-1779
▁eye	-1780
▁fut	-1781
▁deal	-1782
▁post	-1783
▁stri	-1784
▁thin	-1785
▁jud	-1786
oured	-1787
▁utter	-1788
ex	-1789
uff	-1790
▁Am	-1791
ones	-1792
▁mem	-1793
▁late	-1794
▁cloud	-1795
▁expression	-1796
▁vi	-1797
yond	-1798
▁pie	-1799
▁doing	-1800
▁anyone	-1801
▁beyond	-1802
▁priest	-1803
dom	-1804
▁jo	-1805
▁est	-1806
bered	-1807
▁sofa	-1808
▁Yefim	-1809
▁knows	-1810
▁except	-1811
▁laughed	-1812
ims	-1813
▁conc	-1814
▁sake	-1815
▁warm	-1816
▁particular	-1817
ism	-1818
▁Oh	-1819
...”	-1820
come	-1821
▁kit	-1822
▁lie	-1823
▁disp	-1824
▁grow	-1825
▁hung	-1826
▁wide	-1827
▁instance	-1828
omp	-1829
urg	-1830
▁fle	-1831
▁fro	-1832
▁legs	-1833
▁grand	-1834
▁langu	-1835
▁complete	-1836
▁straight	-1837
mon	-1838
▁Av	-1839
▁bat	-1840
hemat	-1841
▁hope	-1842
ination	-1843
▁effect	-1844
▁future	-1845
▁kitchen	-1846
bo	-1847
vo	-1848
well	-1849
▁Mat	-1850
▁cand	-1851
▁pract	-1852
▁surpr	-1853
▁bright	-1854
▁subject	-1855
▁muttered	-1856
▁thoughts	-1857
▁sometimes	-1858
▁frightened	-1859
▁ur	-1860
▁bad	-1861
▁def	-1862
▁Some	-1863
▁coat	-1864
▁fair	-1865
▁glad	-1866
▁known	-1867
▁beside	-1868
sy	-1869
isf	-1870
▁pay	-1871
▁bird	-1872
▁circ	-1873
▁prob	-1874
▁faces	-1875
▁grass	-1876
▁paper	-1877
▁daught	-1878
▁company	-1879
▁walking	-1880
▁Dmitritch	-1881
ixed	-1882
▁eas	-1883
▁que	-1884
ceive	-1885
▁held	-1886
▁green	-1887
▁become	-1888
ny	-1889
ria	-1890
une	-1891
ster	-1892
▁Pro	-1893
▁Yet	-1894
▁rev	-1895
▁neck	-1896
▁trees	-1897
▁garden	-1898
▁public	-1899
▁darkness	-1900
amm	-1901
hal	-1902
ize	-1903
kov	-1904
▁Re	-1905
▁nur	-1906
▁youth	-1907
▁island	-1908
▁police	-1909
▁prison	-1910
iar	-1911
ift	-1912
rit	-1913
wor	-1914
▁De	-1915
▁Avd	-1916
▁cat	-1917
▁und	-1918
ement	-1919
emyon	-1920
▁data	-1921
▁hosp	-1922
▁mult	-1923
▁thick	-1924
▁tried	-1925
▁terrible	-1926
but	-1927
▁prof	-1928
▁scre	-1929
▁opened	-1930
▁persons	-1931
▁turning	-1932
ne	-1933
hod	-1934
▁Ak	-1935
▁pen	-1936
▁suc	-1937
retched	-1938
▁struck	-1939
▁someone	-1940
▁distance	-1941
▁economic	-1942
▁conversation	-1943
▁Mar	-1944
▁box	-1945
▁dest	-1946
▁dress	-1947
▁forth	-1948
▁notic	-1949
▁author	-1950
▁trying	-1951
gar	-1952
▁Un	-1953
▁adm	-1954
▁sir	-1955
▁cler	-1956
▁viol	-1957
▁Yegor	-1958
▁added	-1959
▁study	-1960
▁around	-1961
▁heaven	-1962
▁friends	-1963
▁position	-1964
ER	-1965
ided	-1966
▁Yes	-1967
ented	-1968
▁blue	-1969
▁treat	-1970
▁corner	-1971
▁notice	-1972
▁Petrovna	-1973
▁Yefimitch	-1974
▁afterwards	-1975
▁remembered	-1976
erve	-1977
▁bur	-1978
▁hot	-1979
▁pal	-1980
▁sal	-1981
▁shad	-1982
▁thro	-1983
▁Semyon	-1984
▁across	-1985
▁moving	-1986
els	-1987
ilt	-1988
lga	-1989
ours	-1990
▁(20	-1991
▁top	-1992
▁third	-1993
▁breast	-1994
▁hardly	-1995
▁health	-1996
▁manner	-1997
▁method	-1998
▁laughing	-1999
imov	-2000
▁age	-2001
meric	-2002
▁fresh	-2003
▁seeing	-2004
▁clothes	-2005
▁gentleman	-2006
let	-2007
oly	-2008
gged	-2009
▁Let	-2010
▁fort	-2011
▁exper	-2012
▁happy	-2013
▁scene	-2014
▁necess	-2015
▁although	-2016
▁consider	-2017
▁shoulders	-2018
ingly	-2019
▁moon	-2020
▁chang	-2021
▁hours	-2022
▁river	-2023
▁seems	-2024
▁forgot	-2025
erm	-2026
▁Olga	-2027
▁lived	-2028
▁assist	-2029
▁inform	-2030
▁ladies	-2031
▁please	-2032
▁pocket	-2033
▁however	-2034
how	-2035
ashed	-2036
ouses	-2037
▁didn	-2038
▁stup	-2039
▁broad	-2040
▁const	-2041
▁diffic	-2042
▁either	-2043
▁quickly	-2044
ays	-2045
ists	-2046
▁202	-2047
olute	-2048
▁bell	-2049
▁firm	-2050
▁line	-2051
▁pati	-2052
▁prov	-2053
▁Yakov	-2054
▁chair	-2055
▁value	-2056
ued	-2057
▁ele	-2058
▁esc	-2059
ached	-2060
haust	-2061
lling	-2062
rovna	-2063
▁disg	-2064
▁goes	-2065
▁prep	-2066
▁artic	-2067
▁means	-2068
▁worth	-2069
▁middle	-2070
▁Ivanitch	-2071
▁questions	-2072
ote	-2073
ship	-2074
▁eng	-2075
▁Akim	-2076
▁quar	-2077
▁angry	-2078
▁smell	-2079
▁spoke	-2080
▁stren	-2081
▁uneas	-2082
▁Americ	-2083
▁longer	-2084
▁slowly	-2085
▁confess	-2086
▁hospital	-2087
asp	-2088
set	-2089
sky	-2090
▁Ah	-2091
▁die	-2092
▁smo	-2093
▁gold	-2094
cience	-2095
ooking	-2096
▁loved	-2097
▁steps	-2098
▁singing	-2099
▁speaking	-2100
▁Alexandrovna	-2101
eds	-2102
nds	-2103
oura	-2104
▁Pul	-2105
▁ash	-2106
▁Only	-2107
▁Thou	-2108
▁hang	-2109
▁iron	-2110
cheria	-2111
morrow	-2112
▁While	-2113
▁fields	-2114
▁command	-2115
▁mathemat	-2116
▁pleasure	-2117
▁Pulcheria	-2118
▁certainly	-2119
▁ax	-2120
read	-2121
antly	-2122
clock	-2123
▁shop	-2124
▁faith	-2125
onsense	-2126
▁exhaust	-2127
▁beautiful	-2128
ze	-2129
▁Ar	-2130
ooks	-2131
itted	-2132
usion	-2133
▁grey	-2134
▁snow	-2135
▁Every	-2136
▁build	-2137
▁eight	-2138
▁plain	-2139
▁forget	-2140
▁carried	-2141
▁minutes	-2142
▁uncertainty	-2143
str	-2144
ruct	-2145
▁eff	-2146
iting	-2147
▁bene	-2148
▁sail	-2149
▁wrong	-2150
▁listen	-2151
▁stupid	-2152
▁Nikolay	-2153
▁further	-2154
▁windows	-2155
▁everyone	-2156
***	-2157
pir	-2158
ames	-2159
inal	-2160
otya	-2161
▁fav	-2162
▁lab	-2163
▁mor	-2164
▁infl	-2165
▁purp	-2166
▁yard	-2167
▁moved	-2168
▁posit	-2169
▁intell	-2170
bing	-2171
▁sla	-2172
iment	-2173
▁coll	-2174
▁hill	-2175
▁opin	-2176
▁boots	-2177
▁Matvey	-2178
▁affect	-2179
▁provid	-2180
▁**	-2181
▁Gr	-2182
hood	-2183
▁por	-2184
▁ris	-2185
astas	-2186
▁acqu	-2187
▁lift	-2188
▁tall	-2189
▁vill	-2190
cially	-2191
▁*****	-2192
▁Rodya	-2193
▁doubt	-2194
▁proper	-2195
▁talked	-2196
▁drawing	-2197
▁station	-2198
▁approach	-2199
▁Eng	-2200
▁cab	-2201
▁fla	-2202
▁hid	-2203
▁hig	-2204
▁sle	-2205
▁wat	-2206
▁win	-2207
icked	-2208
▁died	-2209
▁scar	-2210
▁grave	-2211
▁haste	-2212
▁lands	-2213
▁looks	-2214
▁space	-2215
▁broken	-2216
▁peasant	-2217
▁strength	-2218
ici	-2219
▁mo	-2220
lled	-2221
▁fem	-2222
▁med	-2223
▁bear	-2224
▁beat	-2225
▁cent	-2226
▁Mihal	-2227
▁Avdotya	-2228
▁reading	-2229
▁trouble	-2230
▁Akimovna	-2231
▁Romanovna	-2232
▁knowledge	-2233
III	-2234
burg	-2235
what	-2236
▁Man	-2237
▁ann	-2238
eness	-2239
▁coun	-2240
▁requ	-2241
▁Nikit	-2242
▁satisf	-2243
▁summer	-2244
▁comfort	-2245
▁married	-2246
▁paramet	-2247
▁passion	-2248
▁pleased	-2249
▁followed	-2250
ases	-2251
▁aff	-2252
▁cry	-2253
iving	-2254
▁jump	-2255
▁quiet	-2256
▁stone	-2257
▁forward	-2258
▁contempt	-2259
▁creature	-2260
ope	-2261
▁Mr	-2262
ibly	-2263
like	-2264
rest	-2265
▁Luz	-2266
ellow	-2267
velop	-2268
▁calm	-2269
▁educ	-2270
▁chest	-2271
▁story	-2272
▁Luzhin	-2273
▁figure	-2274
▁nonsense	-2275
▁repeated	-2276
▁beginning	-2277
▁Ag	-2278
bers	-2279
irth	-2280
nown	-2281
▁hop	-2282
▁Have	-2283
▁tong	-2284
▁rooms	-2285
▁stars	-2286
▁state	-2287
▁design	-2288
pecially	-2289
▁neither	-2290
▁reflect	-2291
▁stopped	-2292
▁appeared	-2293
▁daughter	-2294
▁drinking	-2295
▁listened	-2296
mn	-2297
ees	-2298
ert	-2299
uous	-2300
▁dog	-2301
eless	-2302
▁Come	-2303
▁note	-2304
▁fancy	-2305
▁heavy	-2306
▁spite	-2307
▁write	-2308
▁market	-2309
▁charact	-2310
mb	-2311
aly	-2312
ades	-2313
aked	-2314
iter	-2315
ofya	-2316
▁201	-2317
▁fly	-2318
itten	-2319
▁fixed	-2320
bye	-2321
chn	-2322
ior	-2323
udd	-2324
ume	-2325
▁Gl	-2326
▁Don	-2327
ified	-2328
ortal	-2329
inging	-2330
▁break	-2331
▁enter	-2332
▁extre	-2333
▁immedi	-2334
▁Mihalovna	-2335
▁especially	-2336
▁understood	-2337
My	-2338
▁Eu	-2339
teen	-2340
▁inn	-2341
▁gate	-2342
▁inte	-2343
▁revol	-2344
▁import	-2345
▁ashamed	-2346
▁covered	-2347
ane	-2348
awn	-2349
▁ca	-2350
▁deg	-2351
▁rap	-2352
▁Good	-2353
▁rise	-2354
▁send	-2355
▁delic	-2356
▁spring	-2357
▁stranger	-2358
▁somewhere	-2359
rs	-2360
arp	-2361
▁id	-2362
clud	-2363
inct	-2364
ters	-2365
▁pra	-2366
....”	-2367
There	-2368
peror	-2369
▁book	-2370
▁nose	-2371
▁resp	-2372
▁Sofya	-2373
▁meant	-2374
▁beauty	-2375
▁desire	-2376
ppy	-2377
ires	-2378
▁dom	-2379
▁van	-2380
ories	-2381
under	-2382
▁drew	-2383
▁vain	-2384
▁dread	-2385
ression	-2386
▁received	-2387
ta	-2388
XXX	-2389
coat	-2390
▁spo	-2391
light	-2392
▁laid	-2393
itions	-2394
▁below	-2395
▁clean	-2396
▁journ	-2397
▁makes	-2398
ational	-2399
▁tavern	-2400
▁instead	-2401
ety	-2402
iat	-2403
ocks	-2404
rope	-2405
sequ	-2406
▁alt	-2407
▁dut	-2408
ences	-2409
ighed	-2410
pered	-2411
▁bank	-2412
▁vast	-2413
atever	-2414
▁Which	-2415
▁neigh	-2416
▁depart	-2417
▁motion	-2418
▁perform	-2419
side	-2420
▁rid	-2421
▁sor	-2422
▁dare	-2423
▁ears	-2424
▁Their	-2425
▁beard	-2426
▁proud	-2427
▁remain	-2428
▁fingers	-2429
▁opinion	-2430
▁purpose	-2431
▁condition	-2432
▁4	-2433
ams	-2434
iber	-2435
ploy	-2436
▁leg	-2437
▁inqu	-2438
▁oper	-2439
▁prot	-2440
▁thus	-2441
▁wine	-2442
ounded	-2443
▁extra	-2444
ference	-2445
▁Europe	-2446
▁Nature	-2447
▁houses	-2448
▁yellow	-2449
▁noticed	-2450
▁special	-2451
▁presence	-2452
▁probably	-2453
que	-2454
▁Ly	-2455
rely	-2456
▁dim	-2457
▁mel	-2458
▁born	-2459
▁fond	-2460
▁offe	-2461
▁rese	-2462
Yahoos	-2463
▁bread	-2464
▁chief	-2465
▁class	-2466
▁exact	-2467
▁walls	-2468
ulation	-2469
▁result	-2470
▁stairs	-2471
▁strugg	-2472
▁trembling	-2473
We	-2474
aff	-2475
uct	-2476
you	-2477
rate	-2478
▁axe	-2479
▁cla	-2480
▁dig	-2481
known	-2482
▁Russ	-2483
▁burn	-2484
▁nice	-2485
▁ones	-2486
▁pict	-2487
▁rain	-2488
▁reck	-2489
▁shut	-2490
▁susp	-2491
▁produ	-2492
▁reach	-2493
▁simple	-2494
▁running	-2495
▁officers	-2496
▁character	-2497
▁happiness	-2498
▁therefore	-2499
▁Yegorushka	-2500
If	-2501
und	-2502
▁Mo	-2503
ince	-2504
▁fat	-2505
▁hol	-2506
▁unt	-2507
▁ver	-2508
acher	-2509
ghter	-2510
ustom	-2511
▁cast	-2512
▁huge	-2513
▁sense	-2514
▁waves	-2515
▁States	-2516
▁recogn	-2517
▁scarce	-2518
▁terror	-2519
▁However	-2520
▁reached	-2521
▁laughter	-2522
af	-2523
uls	-2524
▁Ab	-2525
▁Pl	-2526
miss	-2527
▁sac	-2528
night	-2529
▁dust	-2530
▁empt	-2531
▁grew	-2532
▁shame	-2533
▁attend	-2534
▁cities	-2535
▁months	-2536
▁convict	-2537
▁describ	-2538
▁immediately	-2539
AP	-2540
Th	-2541
lf	-2542
ding	-2543
edom	-2544
rief	-2545
▁anx	-2546
▁bab	-2547
▁pat	-2548
▁rob	-2549
anced	-2550
▁fine	-2551
▁race	-2552
▁rich	-2553
▁weep	-2554
▁music	-2555
▁occas	-2556
ability	-2557
▁caught	-2558
▁crying	-2559
▁forest	-2560
▁leaves	-2561
▁neighb	-2562
▁thirty	-2563
▁emperor	-2564
▁natural	-2565
▁univers	-2566
To	-2567
ug	-2568
rop	-2569
tan	-2570
▁See	-2571
▁fal	-2572
osing	-2573
owers	-2574
▁stat	-2575
lessly	-2576
▁conce	-2577
▁devil	-2578
▁faint	-2579
▁Though	-2580
▁clouds	-2581
▁single	-2582
▁smiled	-2583
▁arrived	-2584
▁hurried	-2585
▁measure	-2586
▁suppose	-2587
▁language	-2588
arse	-2589
ests	-2590
irst	-2591
ises	-2592
orts	-2593
▁arr	-2594
▁den	-2595
▁bare	-2596
ishing	-2597
▁agree	-2598
▁compl	-2599
▁front	-2600
▁irrit	-2601
▁polit	-2602
itation	-2603
▁raised	-2604
▁despair	-2605
▁holding	-2606
▁passing	-2607
iff	-2608
she	-2609
odka	-2610
▁len	-2611
▁sad	-2612
▁none	-2613
▁Marfa	-2614
▁drank	-2615
▁relig	-2616
▁smoke	-2617
▁stove	-2618
ersburg	-2619
▁Rodion	-2620
▁employ	-2621
▁invest	-2622
▁America	-2623
▁extreme	-2624
▁playing	-2625
▁putting	-2626
,--	-2627
▁hy	-2628
▁Mod	-2629
▁fit	-2630
▁hen	-2631
untie	-2632
▁cost	-2633
▁main	-2634
▁knees	-2635
▁mater	-2636
▁vodka	-2637
astasya	-2638
▁accord	-2639
▁during	-2640
▁multip	-2641
▁dressed	-2642
▁explain	-2643
▁working	-2644
▁directly	-2645
▁signific	-2646
▁Petersburg	-2647
gy	-2648
TER	-2649
ech	-2650
eth	-2651
akes	-2652
hold	-2653
▁wit	-2654
spect	-2655
▁heat	-2656
ametov	-2657
erable	-2658
▁brain	-2659
▁nurse	-2660
▁store	-2661
▁became	-2662
▁circum	-2663
▁office	-2664
▁suspic	-2665
▁whisper	-2666
▁suffering	-2667
▁appearance	-2668
_.	-2669
ho	-2670
cil	-2671
ouy	-2672
zen	-2673
▁ge	-2674
amma	-2675
body	-2676
hnhn	-2677
iant	-2678
iers	-2679
▁Thy	-2680
▁arg	-2681
▁ban	-2682
▁ble	-2683
▁cho	-2684
▁enc	-2685
▁fra	-2686
▁neg	-2687
▁agon	-2688
▁bent	-2689
▁drop	-2690
▁vent	-2691
▁exist	-2692
▁grown	-2693
olutely	-2694
ouyhnhn	-2695
▁murder	-2696
▁mention	-2697
▁streets	-2698
▁whispered	-2699
ec	-2700
▁ty	-2701
aces	-2702
ners	-2703
osop	-2704
rill	-2705
▁dem	-2706
▁led	-2707
▁Lord	-2708
▁path	-2709
▁soci	-2710
▁sole	-2711
▁allow	-2712
▁incre	-2713
▁landl	-2714
▁piece	-2715
▁spent	-2716
▁stern	-2717
▁uncle	-2718
▁change	-2719
▁interp	-2720
▁tender	-2721
▁Zametov	-2722
▁greater	-2723
▁forgotten	-2724
joy	-2725
aped	-2726
cies	-2727
oves	-2728
rodu	-2729
▁bal	-2730
▁key	-2731
ology	-2732
▁Your	-2733
ashing	-2734
ilosop	-2735
▁clerk	-2736
▁songs	-2737
▁takes	-2738
▁touch	-2739
ossimov	-2740
▁asking	-2741
▁determ	-2742
▁finger	-2743
▁travel	-2744
▁desired	-2745
▁Nastasya	-2746
▁listening	-2747
▁necessary	-2748
.’	-2749
ls	-2750
wo	-2751
Don	-2752
eks	-2753
ify	-2754
oes	-2755
▁Fy	-2756
Come	-2757
amov	-2758
iest	-2759
▁avo	-2760
▁Vass	-2761
▁flew	-2762
▁lawy	-2763
▁star	-2764
▁bless	-2765
▁catch	-2766
▁lives	-2767
▁lower	-2768
▁train	-2769
ossible	-2770
▁forced	-2771
▁policy	-2772
▁stands	-2773
▁system	-2774
▁toward	-2775
▁animals	-2776
▁Zossimov	-2777
▁whatever	-2778
▁Romanovitch	-2779
mp	-2780
lya	-2781
par	-2782
atic	-2783
aved	-2784
▁Thr	-2785
▁obl	-2786
▁wag	-2787
ament	-2788
▁redu	-2789
▁sett	-2790
▁spot	-2791
▁virt	-2792
▁broke	-2793
▁contr	-2794
▁flung	-2795
▁gloom	-2796
▁storm	-2797
▁accept	-2798
▁giving	-2799
▁tongue	-2800
▁triump	-2801
▁various	-2802
▁learning	-2803
▁attention	-2804
In	-2805
▁Ne	-2806
Good	-2807
▁non	-2808
aches	-2809
itary	-2810
▁evil	-2811
▁priv	-2812
▁tone	-2813
ancing	-2814
▁Moise	-2815
▁early	-2816
▁miles	-2817
▁candle	-2818
▁sighed	-2819
▁possess	-2820
▁unknown	-2821
▁carriage	-2822
▁particularly	-2823
oz	-2824
ker	-2825
▁CH	-2826
alia	-2827
ukov	-2828
▁rub	-2829
cient	-2830
ision	-2831
▁bott	-2832
▁lean	-2833
▁pill	-2834
▁plan	-2835
▁rose	-2836
▁vict	-2837
▁wand	-2838
▁week	-2839
▁cause	-2840
▁fever	-2841
▁seven	-2842
▁techn	-2843
▁descri	-2844
▁divine	-2845
▁number	-2846
▁develop	-2847
▁officer	-2848
▁exhausted	-2849
ipp	-2850
▁bow	-2851
▁nar	-2852
ether	-2853
rance	-2854
▁lead	-2855
▁sple	-2856
▁Masha	-2857
▁cover	-2858
▁shape	-2859
▁sides	-2860
looking	-2861
osition	-2862
▁belong	-2863
▁danger	-2864
▁escape	-2865
▁suffer	-2866
Houyhnhn	-2867
▁besides	-2868
▁drunken	-2869
▁student	-2870
▁servants	-2871
▁conscious	-2872
▁impossible	-2873
ury	-2874
arya	-2875
ples	-2876
▁mag	-2877
▁roof	-2878
▁alarm	-2879
▁birth	-2880
▁diver	-2881
▁dying	-2882
▁ideas	-2883
▁higher	-2884
▁horror	-2885
cellency	-2886
▁meaning	-2887
▁landlady	-2888
▁difficult	-2889
▁understanding	-2890
aged	-2891
wing	-2892
work	-2893
▁Kuz	-2894
▁hab	-2895
▁mal	-2896
▁voy	-2897
ience	-2898
ishop	-2899
riage	-2900
▁sank	-2901
▁wond	-2902
itable	-2903
▁Sasha	-2904
▁drove	-2905
▁haven	-2906
▁imper	-2907
▁Auntie	-2908
▁speech	-2909
▁supper	-2910
▁voices	-2911
▁captain	-2912
▁expected	-2913
▁philosop	-2914
io	-2915
They	-2916
ench	-2917
pend	-2918
unov	-2919
▁cup	-2920
▁bore	-2921
▁comr	-2922
▁mass	-2923
▁port	-2924
▁tear	-2925
ensive	-2926
▁begun	-2927
▁force	-2928
▁match	-2929
▁noise	-2930
▁novel	-2931
▁sharp	-2932
ogether	-2933
▁jumped	-2934
▁killed	-2935
▁pulled	-2936
▁conceal	-2937
▁journey	-2938
▁regular	-2939
▁triumph	-2940
▁scarcely	-2941
.'	-2942
rif	-2943
▁Pr	-2944
▁Sp	-2945
ayes	-2946
rect	-2947
uish	-2948
wise	-2949
▁Ind	-2950
▁Pol	-2951
▁eld	-2952
▁pun	-2953
APTER	-2954
ocked	-2955
▁Kuzm	-2956
▁Mark	-2957
▁Such	-2958
▁hero	-2959
▁pred	-2960
▁rock	-2961
▁seek	-2962
▁stop	-2963
▁unha	-2964
▁unse	-2965
seless	-2966
▁forty	-2967
▁frame	-2968
▁mamma	-2969
▁offer	-2970
▁eating	-2971
▁favour	-2972
▁follow	-2973
▁latter	-2974
▁rising	-2975
▁showed	-2976
▁CHAPTER	-2977
▁systems	-2978
▁telling	-2979
▁wearing	-2980
▁material	-2981
bez	-2982
hys	-2983
oot	-2984
rew	-2985
▁Me	-2986
cean	-2987
chan	-2988
rees	-2989
▁fru	-2990
▁gen	-2991
▁pot	-2992
cover	-2993
imson	-2994
▁boat	-2995
▁hall	-2996
▁hide	-2997
▁seas	-2998
▁surr	-2999
▁books	-3000
▁enjoy	-3001
▁bitter	-3002
▁entire	-3003
▁reckon	-3004
▁Nikitin	-3005
▁instant	-3006
▁learned	-3007
▁extraord	-3008
▁mountain	-3009
▁mountains	-3010
▁continually	-3011
ium	-3012
lic	-3013
por	-3014
rid	-3015
▁er	-3016
eral	-3017
race	-3018
rily	-3019
▁Per	-3020
▁emp	-3021
▁env	-3022
▁unf	-3023
chief	-3024
izing	-3025
▁duty	-3026
▁self	-3027
▁tail	-3028
action	-3029
beziat	-3030
▁Bayes	-3031
▁carry	-3032
▁crime	-3033
▁famil	-3034
▁parts	-3035
▁recall	-3036
▁throat	-3037
▁intellig	-3038
beziatnikov	-3039
gl	-3040
ok	-3041
tic	-3042
▁Go	-3043
▁Sc	-3044
acon	-3045
ager	-3046
arer	-3047
gers	-3048
hens	-3049
odor	-3050
▁ast	-3051
▁inh	-3052
▁lot	-3053
Where	-3054
vitch	-3055
▁Nady	-3056
▁boys	-3057
▁fish	-3058
▁harm	-3059
▁orig	-3060
▁save	-3061
atform	-3062
ection	-3063
stairs	-3064
▁Somet	-3065
▁dwell	-3066
▁pride	-3067
▁steam	-3068
▁worse	-3069
▁begins	-3070
▁princi	-3071
▁splend	-3072
▁waters	-3073
▁crimson	-3074
▁kingdom	-3075
▁smiling	-3076
▁village	-3077
▁marriage	-3078
▁Semyonovna	-3079
▁addressing	-3080
▁Lebeziatnikov	-3081
,'	-3082
,’	-3083
Ah	-3084
Do	-3085
do	-3086
umb	-3087
urs	-3088
▁Ad	-3089
▁TH	-3090
aken	-3091
hail	-3092
▁Con	-3093
▁Mad	-3094
▁cru	-3095
▁gle	-3096
▁pet	-3097
▁vex	-3098
▁cook	-3099
▁earn	-3100
▁hate	-3101
▁wear	-3102
▁analy	-3103
▁fifty	-3104
▁heads	-3105
▁influ	-3106
▁poems	-3107
▁thine	-3108
▁urban	-3109
▁usual	-3110
▁dreams	-3111
▁Through	-3112
▁curious	-3113
▁started	-3114
▁teacher	-3115
▁surprise	-3116
Let	-3117
asc	-3118
eps	-3119
lly	-3120
now	-3121
tch	-3122
▁ut	-3123
erge	-3124
oint	-3125
astic	-3126
inite	-3127
isten	-3128
ument	-3129
▁fate	-3130
▁furn	-3131
▁mill	-3132
▁nerv	-3133
▁birds	-3134
▁fanci	-3135
▁indif	-3136
▁learn	-3137
▁pecul	-3138
▁ships	-3139
▁sorts	-3140
▁length	-3141
▁capital	-3142
▁passage	-3143
▁success	-3144
▁visitor	-3145
▁greatest	-3146
▁returned	-3147
▁visitors	-3148
▁altogether	-3149
▁mathematics	-3150
So	-3151
She	-3152
ids	-3153
whe	-3154
▁civ	-3155
▁try	-3156
▁debt	-3157
▁food	-3158
▁sugg	-3159
ocking	-3160
▁Again	-3161
▁alive	-3162
▁gazed	-3163
▁teach	-3164
▁waist	-3165
▁mechan	-3166
▁softly	-3167
▁justice	-3168
▁leaving	-3169
▁accident	-3170
▁occasion	-3171
▁peculiar	-3172
▁interrupt	-3173
▁relations	-3174
▁completely	-3175
10	-3176
oe	-3177
arl	-3178
ming	-3179
▁Are	-3180
▁Tch	-3181
ulous	-3182
▁Even	-3183
▁hist	-3184
▁lies	-3185
▁magn	-3186
▁meat	-3187
▁peas	-3188
ashion	-3189
▁chant	-3190
▁empty	-3191
▁hills	-3192
▁queen	-3193
▁trust	-3194
▁twice	-3195
▁woods	-3196
▁Mihail	-3197
▁bishop	-3198
▁convin	-3199
▁reader	-3200
▁regard	-3201
▁transp	-3202
▁falling	-3203
▁Kuzmitch	-3204
▁apparent	-3205
▁delighted	-3206
▁perfectly	-3207
sc	-3208
med	-3209
oll	-3210
ols	-3211
umn	-3212
aded	-3213
ties	-3214
▁bod	-3215
▁pil	-3216
▁shr	-3217
▁wel	-3218
ipped	-3219
istic	-3220
rench	-3221
▁dign	-3222
▁gall	-3223
▁hath	-3224
ancial	-3225
▁Nadya	-3226
▁fight	-3227
▁shook	-3228
▁trave	-3229
▁porter	-3230
▁winter	-3231
▁bedroom	-3232
▁changed	-3233
▁consequ	-3234
▁distrib	-3235
▁fancied	-3236
▁introdu	-3237
!'	-3238
arr	-3239
anch	-3240
aste	-3241
cher	-3242
▁Ger	-3243
▁Jew	-3244
▁cha	-3245
▁org	-3246
▁tow	-3247
aming	-3248
ashka	-3249
▁fail	-3250
▁miss	-3251
ceeded	-3252
▁avoid	-3253
▁delir	-3254
▁drive	-3255
▁hence	-3256
▁north	-3257
▁notes	-3258
▁swift	-3259
▁walks	-3260
▁yards	-3261
▁Dmitri	-3262
▁Fyodor	-3263
▁behold	-3264
▁couldn	-3265
▁height	-3266
▁memory	-3267
▁parent	-3268
▁repres	-3269
▁angrily	-3270
▁counten	-3271
▁results	-3272
▁unhappy	-3273
▁financial	-3274
▁following	-3275
▁gentlemen	-3276
ral	-3277
▁je	-3278
ands	-3279
avel	-3280
icks	-3281
rban	-3282
▁spr	-3283
▁wra	-3284
▁amaz	-3285
▁burst	-3286
▁false	-3287
▁gives	-3288
▁liber	-3289
▁queer	-3290
attered	-3291
ishment	-3292
▁deacon	-3293
▁former	-3294
▁interv	-3295
▁likely	-3296
▁narrow	-3297
▁sounds	-3298
▁distant	-3299
▁factory	-3300
▁project	-3301
▁usually	-3302
▁circumst	-3303
▁official	-3304
▁education	-3305
▁examining	-3306
▁important	-3307
▁government	-3308
▁6	-3309
▁z	-3310
For	-3311
com	-3312
nat	-3313
urb	-3314
▁od	-3315
anny	-3316
text	-3317
▁ate	-3318
▁ign	-3319
▁sav	-3320
▁wis	-3321
osity	-3322
yukov	-3323
▁etern	-3324
▁firms	-3325
▁frequ	-3326
▁ocean	-3327
▁resol	-3328
▁shirt	-3329
▁gather	-3330
▁discuss	-3331
▁forgive	-3332
▁imagine	-3333
▁policem	-3334
▁thunder	-3335
▁written	-3336
▁acquaint	-3337
▁extremely	-3338
fl	-3339
no	-3340
erg	-3341
fer	-3342
▁Pe	-3343
erer	-3344
hand	-3345
▁Old	-3346
▁aut	-3347
board	-3348
ivity	-3349
▁blow	-3350
▁bold	-3351
▁fold	-3352
▁seat	-3353
▁shed	-3354
▁cough	-3355
▁frown	-3356
▁thank	-3357
▁orders	-3358
▁rushed	-3359
▁exactly	-3360
▁freedom	-3361
▁receive	-3362
▁discover	-3363
▁finished	-3364
▁shoulder	-3365
▁described	-3366
▁neighbour	-3367
AR	-3368
PU	-3369
zy	-3370
ron	-3371
ton	-3372
▁Our	-3373
▁hes	-3374
▁hun	-3375
▁lat	-3376
ption	-3377
▁cart	-3378
▁laws	-3379
▁rude	-3380
▁tree	-3381
▁depth	-3382
▁distr	-3383
▁image	-3384
▁animal	-3385
▁battle	-3386
▁lawyer	-3387
▁slight	-3388
▁sorrow	-3389
▁knowing	-3390
▁shaking	-3391
▁wretched	-3392
▁carefully	-3393
de	-3394
my	-3395
Not	-3396
bly	-3397
▁ik	-3398
aced	-3399
ails	-3400
ator	-3401
osom	-3402
road	-3403
▁Mer	-3404
▁mur	-3405
henka	-3406
oring	-3407
▁edge	-3408
▁pret	-3409
▁stir	-3410
ushing	-3411
▁advan	-3412
▁aloud	-3413
▁equal	-3414
▁guess	-3415
▁indic	-3416
▁separ	-3417
▁teeth	-3418
▁Amalia	-3419
▁gazing	-3420
▁mighty	-3421
▁theory	-3422
▁burning	-3423
▁disgust	-3424
▁illness	-3425
▁leading	-3426
▁lighted	-3427
▁observe	-3428
▁mistress	-3429
▁convinced	-3430
▁stretched	-3431
ob	-3432
▁&	-3433
hip	-3434
sec	-3435
▁Fl	-3436
▁ep	-3437
!...	-3438
ians	-3439
ient	-3440
over	-3441
some	-3442
▁Was	-3443
▁cou	-3444
▁defe	-3445
▁kope	-3446
▁pity	-3447
tained	-3448
tering	-3449
▁blame	-3450
▁desce	-3451
▁drawn	-3452
▁inhab	-3453
▁liked	-3454
▁custom	-3455
▁fallen	-3456
▁filled	-3457
▁impact	-3458
▁excited	-3459
▁growing	-3460
▁nations	-3461
▁shadows	-3462
▁society	-3463
▁ordinary	-3464
▁peasants	-3465
▁provided	-3466
▁Excellency	-3467
ws	-3468
▁5	-3469
uly	-3470
ayed	-3471
elve	-3472
enka	-3473
sing	-3474
▁Kun	-3475
▁May	-3476
▁dam	-3477
▁fet	-3478
▁hut	-3479
antic	-3480
aveta	-3481
isted	-3482
while	-3483
▁crim	-3484
▁holy	-3485
▁impl	-3486
▁nois	-3487
▁phys	-3488
▁stro	-3489
▁Urban	-3490
▁Would	-3491
▁judge	-3492
▁quant	-3493
▁shows	-3494
iveness	-3495
izaveta	-3496
▁French	-3497
▁advant	-3498
▁bottom	-3499
▁comput	-3500
▁excell	-3501
▁prince	-3502
▁attract	-3503
▁clearly	-3504
▁decided	-3505
▁disting	-3506
▁fortune	-3507
▁ordered	-3508
▁rapidly	-3509
▁serious	-3510
▁settled	-3511
▁evidence	-3512
▁friendly	-3513
▁shouting	-3514
▁continued	-3515
▁positively	-3516
asy	-3517
bid	-3518
ses	-3519
▁ga	-3520
aker	-3521
ione	-3522
▁THE	-3523
▁fil	-3524
▁gun	-3525
asing	-3526
eding	-3527
▁host	-3528
▁incl	-3529
▁ring	-3530
▁shru	-3531
orious	-3532
ortion	-3533
▁Pavel	-3534
▁aston	-3535
▁bosom	-3536
▁noble	-3537
▁press	-3538
ization	-3539
ourable	-3540
▁dining	-3541
▁happen	-3542
▁honest	-3543
▁impati	-3544
▁loudly	-3545
▁spread	-3546
▁struct	-3547
▁uneasy	-3548
▁weight	-3549
▁complex	-3550
▁methods	-3551
▁predict	-3552
▁writing	-3553
▁Bayesian	-3554
▁distinct	-3555
▁goodness	-3556
▁soldiers	-3557
yn	-3558
▁Q	-3559
pet	-3560
wed	-3561
▁Ry	-3562
ague	-3563
cuse	-3564
lish	-3565
▁mir	-3566
imate	-3567
osite	-3568
▁Give	-3569
▁nine	-3570
▁rust	-3571
▁sees	-3572
ounced	-3573
pected	-3574
▁Kunin	-3575
▁mourn	-3576
▁oblig	-3577
▁sorry	-3578
▁spect	-3579
▁subst	-3580
▁swear	-3581
▁yield	-3582
▁undert	-3583
▁address	-3584
▁beating	-3585
▁funeral	-3586
▁keeping	-3587
▁welcome	-3588
▁Christop	-3589
▁assistant	-3590
▁policeman	-3591
▁surprised	-3592
▁interesting	-3593
Is	-3594
VI	-3595
cu	-3596
lac	-3597
rap	-3598
zed	-3599
▁19	-3600
▁En	-3601
▁Lu	-3602
▁ec	-3603
ales	-3604
iety	-3605
ords	-3606
▁dry	-3607
▁log	-3608
▁scr	-3609
▁sna	-3610
▁spl	-3611
tanka	-3612
using	-3613
▁ages	-3614
▁betr	-3615
▁clut	-3616
▁diss	-3617
▁scen	-3618
▁unto	-3619
icking	-3620
idence	-3621
rehens	-3622
▁Serge	-3623
▁benef	-3624
▁cheer	-3625
▁cries	-3626
▁forms	-3627
▁innoc	-3628
▁stret	-3629
ivering	-3630
▁German	-3631
▁bodies	-3632
▁easily	-3633
ashtanka	-3634
▁beneath	-3635
▁content	-3636
▁hanging	-3637
▁utterly	-3638
▁multiple	-3639
▁watching	-3640
Houyhnhnms	-3641
▁motionless	-3642
▁extraordinary	-3643
val	-3644
illy	-3645
oose	-3646
▁New	-3647
▁Two	-3648
▁due	-3649
▁isn	-3650
▁lin	-3651
▁ves	-3652
▁vol	-3653
allen	-3654
arted	-3655
elage	-3656
ested	-3657
ortun	-3658
▁cott	-3659
▁dogs	-3660
anitch	-3661
idered	-3662
iments	-3663
▁Model	-3664
▁decla	-3665
▁level	-3666
▁liter	-3667
▁marry	-3668
▁party	-3669
▁share	-3670
▁using	-3671
▁contro	-3672
▁fourth	-3673
▁glance	-3674
▁lesson	-3675
▁modern	-3676
▁solemn	-3677
▁square	-3678
▁temper	-3679
▁wouldn	-3680
▁dropped	-3681
▁letters	-3682
▁outside	-3683
▁provide	-3684
▁weather	-3685
▁murdered	-3686
▁religion	-3687
▁remained	-3688
▁curiosity	-3689
▁simulation	-3690
▁Christopher	-3691
19	-3692
esh	-3693
ffe	-3694
pon	-3695
▁Lo	-3696
amps	-3697
rain	-3698
▁Out	-3699
▁cow	-3700
▁pin	-3701
▁wet	-3702
arest	-3703
ounds	-3704
▁conn	-3705
▁page	-3706
▁roll	-3707
▁unex	-3708
▁ways	-3709
▁wish	-3710
ential	-3711
itated	-3712
master	-3713
ousers	-3714
▁aside	-3715
▁awful	-3716
▁beast	-3717
▁doesn	-3718
▁south	-3719
▁works	-3720
▁closed	-3721
▁twelve	-3722
▁digital	-3723
▁hearing	-3724
▁witness	-3725
▁immortal	-3726
▁intently	-3727
▁according	-3728
▁spiritual	-3729
jo	-3730
▁Bl	-3731
▁Se	-3732
▁Sy	-3733
▁av	-3734
Very	-3735
isha	-3736
line	-3737
olon	-3738
oted	-3739
otov	-3740
zing	-3741
▁unw	-3742
▁Time	-3743
▁asse	-3744
▁busy	-3745
▁drum	-3746
▁easy	-3747
▁lamp	-3748
▁prec	-3749
estern	-3750
ferent	-3751
▁civil	-3752
▁habit	-3753
▁organ	-3754
▁raise	-3755
▁Pelage	-3756
▁demand	-3757
▁driven	-3758
▁excuse	-3759
▁insult	-3760
▁lifted	-3761
▁thrust	-3762
▁whence	-3763
▁English	-3764
▁fashion	-3765
▁fifteen	-3766
▁inhabit	-3767
▁pointed	-3768
▁feelings	-3769
▁forehead	-3770
▁confusion	-3771
IV	-3772
cle	-3773
iny	-3774
agin	-3775
lace	-3776
▁Any	-3777
▁Wor	-3778
▁aud	-3779
▁god	-3780
gress	-3781
hered	-3782
prise	-3783
▁Lyub	-3784
▁hole	-3785
▁leap	-3786
▁lose	-3787
▁meas	-3788
▁mort	-3789
▁purs	-3790
ulated	-3791
▁crack	-3792
▁eager	-3793
▁hopes	-3794
▁shown	-3795
▁slept	-3796
▁turns	-3797
ioneers	-3798
▁Sergey	-3799
▁chaise	-3800
▁indign	-3801
▁native	-3802
▁refuse	-3803
▁social	-3804
▁utmost	-3805
▁England	-3806
▁allowed	-3807
▁ancient	-3808
▁article	-3809
▁capable	-3810
▁conduct	-3811
▁current	-3812
▁entreat	-3813
▁violent	-3814
▁workmen	-3815
▁delicate	-3816
▁district	-3817
▁entirely	-3818
▁overcome	-3819
▁represent	-3820
▁information	-3821
?)	-3822
IX	-3823
St	-3824
],	-3825
Who	-3826
dal	-3827
ole	-3828
ony	-3829
▁Zh	-3830
ites	-3831
llow	-3832
they	-3833
▁Bes	-3834
▁aim	-3835
▁cig	-3836
▁har	-3837
chant	-3838
lease	-3839
oping	-3840
stand	-3841
▁dull	-3842
▁grad	-3843
▁situ	-3844
▁tick	-3845
▁tort	-3846
arrass	-3847
▁anger	-3848
▁blank	-3849
▁brown	-3850
▁dirty	-3851
▁drops	-3852
▁fault	-3853
▁girls	-3854
▁naked	-3855
ounding	-3856
ruction	-3857
▁Grisha	-3858
▁Madame	-3859
▁buried	-3860
▁cheeks	-3861
▁consum	-3862
▁conven	-3863
▁extend	-3864
▁hidden	-3865
▁silver	-3866
▁vessel	-3867
▁waited	-3868
▁concept	-3869
▁foolish	-3870
▁quietly	-3871
▁touched	-3872
▁Lizaveta	-3873
▁familiar	-3874
▁opportun	-3875
▁research	-3876
▁Kashtanka	-3877
▁embarrass	-3878
▁entertain	-3879
▁hurriedly	-3880
▁friendship	-3881
▁parametric	-3882
▁unexpected	-3883
;)	-3884
tt	-3885
reg	-3886
roy	-3887
thy	-3888
appe	-3889
held	-3890
utka	-3891
▁bay	-3892
▁cro	-3893
▁tro	-3894
▁uns	-3895
house	-3896
orous	-3897
orted	-3898
▁Gree	-3899
▁Like	-3900
▁Ryab	-3901
▁myst	-3902
▁pave	-3903
▁rail	-3904
▁risk	-3905
▁sour	-3906
▁wave	-3907
atures	-3908
intend	-3909
ration	-3910
▁apart	-3911
▁blind	-3912
▁doors	-3913
▁fully	-3914
▁pover	-3915
▁terms	-3916
▁winds	-3917
▁yours	-3918
▁chance	-3919
▁clever	-3920
▁kissed	-3921
▁stared	-3922
▁strict	-3923
▁unseen	-3924
▁context	-3925
▁flowers	-3926
▁lodging	-3927
▁setting	-3928
▁weeping	-3929
▁whereof	-3930
▁carrying	-3931
▁dressing	-3932
▁minister	-3933
▁opposite	-3934
▁somewhat	-3935
▁trousers	-3936
▁wonderful	-3937
▁Ryabovitch	-3938
▁absolutely	-3939
app	-3940
iot	-3941
mas	-3942
oms	-3943
▁EV	-3944
▁[1	-3945
Then	-3946
case	-3947
five	-3948
kind	-3949
omes	-3950
unch	-3951
▁Ily	-3952
▁ess	-3953
▁gro	-3954
▁loc	-3955
▁rum	-3956
cific	-3957
lying	-3958
▁Look	-3959
▁Love	-3960
▁More	-3961
▁Thee	-3962
▁amid	-3963
▁farm	-3964
▁loss	-3965
▁poet	-3966
▁qual	-3967
▁size	-3968
astery	-3969
uments	-3970
▁absor	-3971
▁dance	-3972
▁flesh	-3973
▁guard	-3974
▁samov	-3975
▁wants	-3976
▁wings	-3977
▁wrote	-3978
▁colour	-3979
▁flying	-3980
▁mutter	-3981
▁pillow	-3982
▁prayer	-3983
▁served	-3984
▁Perhaps	-3985
▁example	-3986
▁meeting	-3987
▁objects	-3988
▁parents	-3989
▁poverty	-3990
▁quality	-3991
▁quarter	-3992
▁science	-3993
▁soldier	-3994
▁somehow	-3995
▁building	-3996
▁precious	-3997
▁prepared	-3998
▁splendid	-3999
▁struggle	-4000
▁advantage	-4001
▁evidently	-4002
▁apparently	-4003
▁considered	-4004
bre	-4005
cow	-4006
ipe	-4007
oof	-4008
Here	-4009
ache	-4010
ilty	-4011
▁Did	-4012
▁Van	-4013
▁bot	-4014
▁inj	-4015
ected	-4016
erted	-4017
erved	-4018
eryoz	-4019
glass	-4020
▁Till	-4021
▁Yerg	-4022
▁army	-4023
▁paid	-4024
▁wore	-4025
ulting	-4026
▁bowed	-4027
▁chain	-4028
▁coach	-4029
▁ignor	-4030
▁lines	-4031
▁mercy	-4032
▁names	-4033
▁weary	-4034
istrate	-4035
▁Heaven	-4036
▁female	-4037
▁loving	-4038
▁nearly	-4039
▁played	-4040
▁shores	-4041
▁stones	-4042
▁taught	-4043
▁unable	-4044
▁answers	-4045
▁attempt	-4046
▁liberty	-4047
▁pretend	-4048
▁promise	-4049
▁shining	-4050
intendent	-4051
▁Yergunov	-4052
▁contrary	-4053
▁entrance	-4054
▁fastened	-4055
▁original	-4056
▁excellent	-4057
▁universal	-4058
▁proportion	-4059
▁significant	-4060
abl	-4061
▁XX	-4062
hest	-4063
ulty	-4064
▁Mos	-4065
▁bas	-4066
▁cop	-4067
▁iss	-4068
▁obv	-4069
dalcl	-4070
estic	-4071
ierce	-4072
▁Glum	-4073
▁caut	-4074
▁comb	-4075
▁cult	-4076
▁fist	-4077
▁stif	-4078
icient	-4079
▁Death	-4080
▁behav	-4081
▁board	-4082
▁dozen	-4083
▁elder	-4084
▁holds	-4085
▁ident	-4086
▁needs	-4087
▁pause	-4088
▁serve	-4089
▁shade	-4090
▁whist	-4091
▁Mother	-4092
▁Pashka	-4093
▁Seryoz	-4094
▁absurd	-4095
▁gloomy	-4096
▁guilty	-4097
▁hungry	-4098
▁merely	-4099
▁shadow	-4100
▁voyage	-4101
ological	-4102
▁concern	-4103
▁contain	-4104
▁dignity	-4105
▁mistake	-4106
dalclitch	-4107
▁governor	-4108
▁handsome	-4109
▁movement	-4110
▁previous	-4111
▁superintendent	-4112
Go	-4113
put	-4114
VIII	-4115
Your	-4116
iles	-4117
keep	-4118
whel	-4119
▁Aly	-4120
▁elb	-4121
▁ice	-4122
▁sex	-4123
ander	-4124
ially	-4125
inist	-4126
othed	-4127
otion	-4128
verse	-4129
▁baby	-4130
▁coff	-4131
▁ecst	-4132
▁gets	-4133
▁stag	-4134
atched	-4135
fortun	-4136
utions	-4137
▁entry	-4138
▁tired	-4139
▁attack	-4140
▁beggar	-4141
▁geomet	-4142
▁growth	-4143
▁passen	-4144
▁pieces	-4145
▁wealth	-4146
▁wooden	-4147
▁advance	-4148
▁compass	-4149
▁contrib	-4150
▁destroy	-4151
▁breathing	-4152
▁expressed	-4153
▁conscience	-4154
▁impression	-4155
▁magistrate	-4156
▁Glumdalclitch	-4157
VII	-4158
boy	-4159
min	-4160
▁--	-4161
▁da	-4162
apes	-4163
athy	-4164
lied	-4165
ogin	-4166
ored	-4167
sych	-4168
ulse	-4169
▁Can	-4170
▁net	-4171
▁unl	-4172
▁wid	-4173
enced	-4174
kward	-4175
▁Pass	-4176
▁Tere	-4177
▁arch	-4178
▁ball	-4179
▁joys	-4180
▁liqu	-4181
▁mess	-4182
▁stom	-4183
▁assum	-4184
▁awake	-4185
▁concl	-4186
▁grief	-4187
▁rocks	-4188
▁threw	-4189
▁trade	-4190
▁Abogin	-4191
▁effort	-4192
▁gently	-4193
▁palace	-4194
▁picked	-4195
▁points	-4196
▁praise	-4197
▁sleepy	-4198
▁doorway	-4199
▁lessons	-4200
▁prayers	-4201
▁prevent	-4202
▁servant	-4203
▁statist	-4204
▁ourselves	-4205
▁discovered	-4206
▁enterprise	-4207
▁imagination	-4208
▁indifferent	-4209
▁inhabitants	-4210
▁acquaintance	-4211
▁distribution	-4212
As	-4213
▁9	-4214
ear	-4215
ipt	-4216
lev	-4217
xim	-4218
▁Kl	-4219
aper	-4220
mist	-4221
uses	-4222
▁dat	-4223
▁ech	-4224
▁sen	-4225
▁vig	-4226
▁wed	-4227
istem	-4228
▁Lent	-4229
▁Long	-4230
▁Tell	-4231
▁lack	-4232
▁mach	-4233
▁murm	-4234
▁pour	-4235
▁swim	-4236
▁symp	-4237
▁cases	-4238
▁deeds	-4239
▁enemy	-4240
▁frost	-4241
▁fruit	-4242
▁globe	-4243
▁paces	-4244
▁price	-4245
▁rough	-4246
▁signs	-4247
▁squee	-4248
ancholy	-4249
▁bottle	-4250
▁endure	-4251
▁hatred	-4252
▁longed	-4253
▁pretty	-4254
▁search	-4255
▁wholly	-4256
yukovsky	-4257
▁Russian	-4258
▁awkward	-4259
▁degrees	-4260
▁history	-4261
▁spirits	-4262
▁stomach	-4263
▁useless	-4264
▁uttered	-4265
▁midnight	-4266
▁overwhel	-4267
▁patients	-4268
▁expecting	-4269
▁generally	-4270
▁stillness	-4271
▁Kuzmitchov	-4272
▁difficulty	-4273
OO	-4274
go	-4275
ips	-4276
pen	-4277
ints	-4278
▁Kir	-4279
▁fer	-4280
▁tur	-4281
acing	-4282
order	-4283
ounce	-4284
ourse	-4285
ulate	-4286
▁Just	-4287
▁Will	-4288
▁agre	-4289
▁brow	-4290
▁hind	-4291
▁ikon	-4292
▁loft	-4293
▁milk	-4294
▁peep	-4295
▁rags	-4296
▁safe	-4297
▁sits	-4298
▁tend	-4299
▁ward	-4300
▁worn	-4301
▁Avery	-4302
▁aware	-4303
▁coast	-4304
▁conqu	-4305
▁flame	-4306
▁hurry	-4307
▁moral	-4308
▁persu	-4309
▁shrie	-4310
▁stick	-4311
▁throw	-4312
▁track	-4313
▁upper	-4314
fulness	-4315
oundrel	-4316
▁Before	-4317
▁explan	-4318
▁hearts	-4319
▁hither	-4320
▁proble	-4321
▁rouble	-4322
▁shrill	-4323
▁strang	-4324
▁strike	-4325
▁challen	-4326
▁evident	-4327
▁follows	-4328
▁forever	-4329
▁raising	-4330
▁reality	-4331
▁studies	-4332
▁breaking	-4333
▁describe	-4334
▁positive	-4335
▁stopping	-4336
▁Dyukovsky	-4337
▁influence	-4338
▁mentioned	-4339
▁secretary	-4340
▁succeeded	-4341
▁melancholy	-4342
▁Averyanitch	-4343
▁countenance	-4344
ys	-4345
!--	-4346
ait	-4347
bar	-4348
iod	-4349
oop	-4350
org	-4351
sis	-4352
▁la	-4353
adov	-4354
ilov	-4355
pper	-4356
uing	-4357
▁XXX	-4358
▁dar	-4359
gging	-4360
iance	-4361
nthes	-4362
oused	-4363
▁(201	-4364
▁clim	-4365
▁fart	-4366
▁grou	-4367
▁pian	-4368
▁pron	-4369
▁reve	-4370
▁ruin	-4371
▁woke	-4372
cluded	-4373
▁admit	-4374
▁embra	-4375
▁ended	-4376
▁grace	-4377
▁greet	-4378
▁lilac	-4379
▁loose	-4380
▁prove	-4381
▁smart	-4382
▁souls	-4383
▁stock	-4384
▁tight	-4385
▁views	-4386
cluding	-4387
ilities	-4388
itement	-4389
▁Moscow	-4390
▁attent	-4391
▁autumn	-4392
▁commun	-4393
▁facing	-4394
▁indust	-4395
▁manage	-4396
▁crossed	-4397
▁earnest	-4398
▁effects	-4399
▁glanced	-4400
▁heavens	-4401
▁immense	-4402
▁intense	-4403
▁private	-4404
▁suspect	-4405
▁wherein	-4406
▁pleasant	-4407
▁weakness	-4408
▁sensation	-4409
▁thousands	-4410
▁difference	-4411
▁interrupted	-4412
▁uncertainties	-4413
Ex	-4414
zz	-4415
God	-4416
acy	-4417
aks	-4418
ann	-4419
end	-4420
het	-4421
cent	-4422
ieve	-4423
iour	-4424
▁Put	-4425
▁Spe	-4426
▁laz	-4427
anged	-4428
aning	-4429
iding	-4430
▁bull	-4431
▁camp	-4432
▁cere	-4433
▁enth	-4434
▁sang	-4435
▁soot	-4436
▁wagg	-4437
▁wasn	-4438
iverse	-4439
orough	-4440
unning	-4441
▁brood	-4442
▁limbs	-4443
▁lover	-4444
▁march	-4445
▁trial	-4446
ashenka	-4447
▁ceased	-4448
▁establ	-4449
▁integr	-4450
▁affairs	-4451
▁anxious	-4452
▁ceremon	-4453
▁corrupt	-4454
▁glasses	-4455
▁manners	-4456
▁numbers	-4457
▁offered	-4458
▁samovar	-4459
▁imperial	-4460
▁infinite	-4461
▁likewise	-4462
▁politics	-4463
▁possibly	-4464
▁progress	-4465
▁relation	-4466
▁wondered	-4467
▁agreeable	-4468
▁companions	-4469
!)	-4470
att	-4471
ino	-4472
ler	-4473
pes	-4474
just	-4475
long	-4476
raph	-4477
uman	-4478
▁hay	-4479
▁pop	-4480
▁sty	-4481
▁tar	-4482
acles	-4483
aries	-4484
iries	-4485
there	-4486
▁(202	-4487
▁asks	-4488
▁doct	-4489
▁lust	-4490
▁pick	-4491
▁pure	-4492
▁sand	-4493
▁soup	-4494
▁summ	-4495
▁tied	-4496
▁yawn	-4497
ension	-4498
▁Other	-4499
▁South	-4500
▁admir	-4501
▁bench	-4502
▁brief	-4503
▁cheek	-4504
▁cruel	-4505
▁falls	-4506
▁flash	-4507
▁midst	-4508
▁piano	-4509
▁psych	-4510
▁unple	-4511
hearted	-4512
ibility	-4513
▁coffin	-4514
▁illust	-4515
▁inside	-4516
▁nights	-4517
▁papers	-4518
▁perpet	-4519
▁placed	-4520
▁rivers	-4521
▁spoken	-4522
▁stream	-4523
▁thirst	-4524
▁threat	-4525
onscious	-4526
▁Vassily	-4527
▁appears	-4528
▁consist	-4529
▁endless	-4530
▁finding	-4531
▁invited	-4532
▁picture	-4533
▁reasons	-4534
▁returns	-4535
▁Pelageya	-4536
▁believed	-4537
▁criminal	-4538
▁decision	-4539
▁innocent	-4540
▁overcoat	-4541
▁practice	-4542
▁promised	-4543
▁Christmas	-4544
▁countries	-4545
▁explained	-4546
▁intellect	-4547
▁downstairs	-4548
▁excitement	-4549
▁performance	-4550
IN	-4551
yr	-4552
One	-4553
dra	-4554
een	-4555
nty	-4556
see	-4557
▁CL	-4558
▁Ge	-4559
born	-4560
cles	-4561
face	-4562
noon	-4563
time	-4564
upon	-4565
uted	-4566
▁Den	-4567
▁Ear	-4568
▁Har	-4569
▁Its	-4570
▁ant	-4571
▁gar	-4572
▁wol	-4573
armel	-4574
ators	-4575
ribly	-4576
which	-4577
▁Nina	-4578
▁ceas	-4579
▁cope	-4580
▁decl	-4581
▁gaze	-4582
▁hurt	-4583
▁rule	-4584
▁sons	-4585
▁torn	-4586
▁vice	-4587
anting	-4588
asping	-4589
father	-4590
isions	-4591
ourage	-4592
▁North	-4593
▁actor	-4594
▁elect	-4595
▁holid	-4596
▁overt	-4597
▁pilgr	-4598
▁recon	-4599
▁shudd	-4600
▁trace	-4601
▁anyway	-4602
▁contri	-4603
▁engine	-4604
▁exceed	-4605
▁guests	-4606
▁heaved	-4607
▁heroes	-4608
▁highly	-4609
▁invent	-4610
▁lights	-4611
▁lovers	-4612
▁mortal	-4613
▁places	-4614
▁virtue	-4615
▁disappe	-4616
▁driving	-4617
▁flushed	-4618
▁longing	-4619
▁priests	-4620
▁profess	-4621
▁support	-4622
▁timidly	-4623
▁venture	-4624
▁wounded	-4625
armeladov	-4626
▁Platform	-4627
▁dropping	-4628
▁thorough	-4629
▁interpret	-4630
▁miserable	-4631
▁satisfied	-4632
▁experience	-4633
▁procession	-4634
▁unpleasant	-4635
▁circumstances	-4636
EE	-4637
Of	-4638
ma	-4639
▁=	-4640
asm	-4641
bal	-4642
der	-4643
dig	-4644
eem	-4645
fts	-4646
isc	-4647
lar	-4648
rem	-4649
yal	-4650
This	-4651
gown	-4652
oses	-4653
otch	-4654
pent	-4655
▁Cap	-4656
▁Com	-4657
▁exh	-4658
▁ham	-4659
▁pig	-4660
▁vul	-4661
igned	-4662
iture	-4663
udden	-4664
▁brid	-4665
▁cash	-4666
▁cred	-4667
▁furi	-4668
▁gain	-4669
▁maid	-4670
▁west	-4671
eneral	-4672
icious	-4673
ilight	-4674
ivered	-4675
mother	-4676
▁Under	-4677
▁bride	-4678
▁estim	-4679
▁instr	-4680
▁leads	-4681
▁linen	-4682
▁maybe	-4683
▁proof	-4684
▁stuff	-4685
▁taste	-4686
▁waved	-4687
▁applic	-4688
▁coarse	-4689
▁cotton	-4690
▁degree	-4691
▁desper	-4692
▁hollow	-4693
▁larger	-4694
▁myster	-4695
▁nation	-4696
▁nearer	-4697
▁needed	-4698
▁regret	-4699
▁smooth	-4700
▁thrown	-4701
ulations	-4702
▁Nothing	-4703
▁assured	-4704
▁bending	-4705
▁breathe	-4706
▁calling	-4707
▁control	-4708
▁eternal	-4709
▁kopecks	-4710
▁mankind	-4711
▁respons	-4712
▁visible	-4713
ification	-4714
▁comrades	-4715
▁function	-4716
▁informed	-4717
▁murderer	-4718
▁offended	-4719
▁pavement	-4720
▁sleeping	-4721
▁solitary	-4722
▁stronger	-4723
▁continual	-4724
▁reflected	-4725
▁scoundrel	-4726
▁interested	-4727
▁whispering	-4728
▁consequence	-4729
▁satisfaction	-4730
amb	-4731
elf	-4732
oom	-4733
ops	-4734
sed	-4735
usi	-4736
▁LX	-4737
▁Tr	-4738
▁XL	-4739
▁di	-4740
bear	-4741
ikin	-4742
iron	-4743
iska	-4744
kers	-4745
llen	-4746
vere	-4747
▁Ble	-4748
▁LXX	-4749
▁Yev	-4750
▁dus	-4751
▁phr	-4752
▁tit	-4753
▁LXXX	-4754
▁ange	-4755
▁beer	-4756
▁bill	-4757
▁bree	-4758
▁east	-4759
▁exec	-4760
▁ours	-4761
▁skin	-4762
▁trif	-4763
▁First	-4764
▁Marya	-4765
▁Shtch	-4766
▁banks	-4767
▁datas	-4768
▁facts	-4769
▁impro	-4770
▁repro	-4771
▁royal	-4772
▁sails	-4773
▁scent	-4774
▁sheep	-4775
▁solid	-4776
▁stair	-4777
▁swell	-4778
uddenly	-4779
▁Russia	-4780
▁action	-4781
▁charge	-4782
▁sacred	-4783
▁sought	-4784
▁survey	-4785
▁transl	-4786
▁Besides	-4787
▁Polenka	-4788
▁correct	-4789
▁dancing	-4790
▁darling	-4791
▁epistem	-4792
▁farther	-4793
▁foreign	-4794
▁reduced	-4795
▁sisters	-4796
▁synthes	-4797
▁disgrace	-4798
▁educated	-4799
▁industry	-4800
▁personal	-4801
▁powerful	-4802
▁Sometimes	-4803
▁exception	-4804
▁practical	-4805
▁seriously	-4806
▁Marmeladov	-4807
▁conviction	-4808
▁distinctly	-4809
▁possession	-4810
▁unconscious	-4811
On	-4812
OOK	-4813
aws	-4814
bac	-4815
col	-4816
enn	-4817
ese	-4818
iqu	-4819
mod	-4820
och	-4821
ule	-4822
▁Ha	-4823
▁II	-4824
amer	-4825
geon	-4826
ndom	-4827
plex	-4828
rast	-4829
▁EPU	-4830
▁Sch	-4831
▁deb	-4832
▁mud	-4833
▁pit	-4834
andon	-4835
bbing	-4836
brows	-4837
▁Both	-4838
▁Take	-4839
▁band	-4840
▁base	-4841
▁cann	-4842
▁ease	-4843
▁flow	-4844
▁game	-4845
▁gray	-4846
▁mood	-4847
▁news	-4848
▁rapt	-4849
▁soil	-4850
▁test	-4851
▁tomb	-4852
▁trad	-4853
▁wake	-4854
rained	-4855
ubikov	-4856
▁charm	-4857
▁flood	-4858
▁gates	-4859
▁limit	-4860
▁loves	-4861
▁phant	-4862
▁varia	-4863
itating	-4864
umbling	-4865
▁aspect	-4866
▁assure	-4867
▁calcul	-4868
▁cigare	-4869
▁depend	-4870
▁fierce	-4871
▁locked	-4872
▁period	-4873
▁poison	-4874
▁random	-4875
▁receiv	-4876
▁savage	-4877
▁sooner	-4878
▁washed	-4879
kerchief	-4880
▁abandon	-4881
▁enthusi	-4882
▁fellows	-4883
▁figures	-4884
▁patient	-4885
▁perplex	-4886
▁smoking	-4887
▁treated	-4888
▁Suddenly	-4889
▁complain	-4890
▁dreadful	-4891
▁eyebrows	-4892
▁humanity	-4893
▁imagined	-4894
▁resolved	-4895
▁revolver	-4896
▁twilight	-4897
▁Tchubikov	-4898
▁furniture	-4899
▁gradually	-4900
▁lightning	-4901
▁monastery	-4902
▁presented	-4903
▁staircase	-4904
▁treatment	-4905
▁approaches	-4906
▁explanation	-4907
▁opportunity	-4908
▁handkerchief	-4909
▁mathematical	-4910
Are	-4911
cts	-4912
ded	-4913
ius	-4914
key	-4915
pse	-4916
▁Ap	-4917
▁Po	-4918
▁gh	-4919
arka	-4920
ique	-4921
odya	-4922
ouch	-4923
▁Fin	-4924
▁Kat	-4925
▁Tim	-4926
▁ach	-4927
▁sev	-4928
acity	-4929
adays	-4930
aling	-4931
arily	-4932
asped	-4933
bacco	-4934
forth	-4935
isher	-4936
umber	-4937
▁2023	-4938
▁Airl	-4939
▁Upon	-4940
▁crit	-4941
▁deem	-4942
▁fury	-4943
▁gest	-4944
▁grim	-4945
▁lord	-4946
▁luck	-4947
▁rati	-4948
▁valu	-4949
▁wise	-4950
ipping	-4951
keeper	-4952
▁crown	-4953
▁hears	-4954
▁mouse	-4955
▁numer	-4956
▁pages	-4957
▁waste	-4958
lection	-4959
▁Moisey	-4960
▁brains	-4961
▁chairs	-4962
▁footst	-4963
▁forbid	-4964
▁hunger	-4965
▁lovely	-4966
▁worked	-4967
attering	-4968
▁Another	-4969
▁ceiling	-4970
▁comrade	-4971
▁impress	-4972
▁matters	-4973
▁wrapped	-4974
▁younger	-4975
▁bringing	-4976
▁features	-4977
▁forester	-4978
▁investig	-4979
▁universe	-4980
▁companion	-4981
▁dangerous	-4982
▁direction	-4983
▁reference	-4984
▁returning	-4985
▁Everything	-4986
▁passionate	-4987
▁attentively	-4988
;”	-4989
bb	-4990
Per	-4991
ado	-4992
erc	-4993
fus	-4994
oul	-4995
▁18	-4996
olit	-4997
▁Cal	-4998
▁buy	-4999
▁nod	-5000
▁sly	-5001
based	-5002
gment	-5003
place	-5004
stead	-5005
▁anch	-5006
▁asce	-5007
▁brig	-5008
▁chin	-5009
▁grat	-5010
▁sell	-5011
▁shaw	-5012
▁weap	-5013
▁whip	-5014
evitch	-5015
▁cabin	-5016
▁claim	-5017
▁glory	-5018
▁greed	-5019
▁knife	-5020
▁rapid	-5021
▁spend	-5022
▁worst	-5023
▁Granny	-5024
▁begged	-5025
▁beheld	-5026
▁flight	-5027
▁freely	-5028
▁haught	-5029
▁kindly	-5030
▁misery	-5031
▁prosec	-5032
▁remind	-5033
▁vulgar	-5034
inations	-5035
lessness	-5036
▁Deniska	-5037
▁Terenty	-5038
▁anguish	-5039
▁kissing	-5040
▁princip	-5041
▁retreat	-5042
▁slipped	-5043
▁analysis	-5044
▁brothers	-5045
▁continue	-5046
▁declared	-5047
▁domestic	-5048
▁honoured	-5049
▁noticing	-5050
▁sensible	-5051
▁surround	-5052
▁behaviour	-5053
▁processes	-5054
▁sentiment	-5055
▁Moisevitch	-5056
▁everywhere	-5057
▁honourable	-5058
▁mysterious	-5059
▁observations	-5060
AN	-5061
].	-5062
▁8	-5063
--“	-5064
anc	-5065
aur	-5066
spe	-5067
▁Qu	-5068
▁pa	-5069
ares	-5070
arsh	-5071
bird	-5072
char	-5073
irts	-5074
lebr	-5075
oust	-5076
umes	-5077
urst	-5078
with	-5079
▁Kal	-5080
▁Lub	-5081
▁bew	-5082
▁fed	-5083
▁ren	-5084
ables	-5085
iring	-5086
unted	-5087
▁BOOK	-5088
▁abst	-5089
▁cher	-5090
▁cool	-5091
▁dumb	-5092
▁papa	-5093
▁pier	-5094
▁roar	-5095
▁sear	-5096
▁slip	-5097
▁sque	-5098
▁suit	-5099
▁Merik	-5100
▁Whose	-5101
▁World	-5102
▁annoy	-5103
▁based	-5104
▁built	-5105
▁cards	-5106
▁displ	-5107
▁fleet	-5108
▁flies	-5109
▁keeps	-5110
▁silly	-5111
▁straw	-5112
▁stuck	-5113
▁suffe	-5114
▁sweat	-5115
▁wrath	-5116
▁Blefus	-5117
▁Lyubka	-5118
▁abrupt	-5119
▁couple	-5120
▁diseas	-5121
▁formal	-5122
▁images	-5123
▁lately	-5124
▁recoll	-5125
▁salary	-5126
▁seized	-5127
piration	-5128
▁changes	-5129
▁copecks	-5130
▁entered	-5131
▁flashed	-5132
▁greatly	-5133
▁heavily	-5134
▁pockets	-5135
▁pressed	-5136
▁proceed	-5137
▁rolling	-5138
▁staring	-5139
▁tobacco	-5140
▁wedding	-5141
▁agitated	-5142
▁articles	-5143
▁crossing	-5144
▁cupboard	-5145
▁employed	-5146
▁geometry	-5147
▁instruct	-5148
▁intended	-5149
▁troubled	-5150
▁qualities	-5151
▁suspicion	-5152
▁violently	-5153
▁development	-5154
);	-5155
//	-5156
?'	-5157
ef	-5158
ye	-5159
://	-5160
gin	-5161
kof	-5162
var	-5163
▁Af	-5164
▁dw	-5165
Have	-5166
ancy	-5167
back	-5168
pers	-5169
uhin	-5170
utor	-5171
vest	-5172
▁Fig	-5173
▁Fre	-5174
▁Par	-5175
▁job	-5176
erior	-5177
gence	-5178
gings	-5179
itive	-5180
ompan	-5181
rated	-5182
▁Miss	-5183
▁Over	-5184
▁Rome	-5185
▁Soon	-5186
▁bass	-5187
▁cell	-5188
▁fren	-5189
▁lect	-5190
▁mere	-5191
▁pack	-5192
▁pair	-5193
▁sink	-5194
▁sins	-5195
▁wars	-5196
Listen	-5197
ifying	-5198
umbled	-5199
▁Ilyin	-5200
▁Shall	-5201
▁bells	-5202
▁brand	-5203
▁brave	-5204
▁colon	-5205
▁feels	-5206
▁gover	-5207
▁idiot	-5208
▁ranks	-5209
▁smelt	-5210
▁spark	-5211
▁style	-5212
▁timid	-5213
▁worry	-5214
▁access	-5215
▁agreed	-5216
▁circle	-5217
▁consid	-5218
▁eleven	-5219
▁hoarse	-5220
▁sullen	-5221
▁values	-5222
▁vision	-5223
▁Looking	-5224
▁anxiety	-5225
▁becomes	-5226
▁carrier	-5227
▁council	-5228
▁crushed	-5229
▁defence	-5230
▁singers	-5231
▁sternly	-5232
▁Airlines	-5233
▁delirium	-5234
▁distress	-5235
▁generous	-5236
▁merchant	-5237
▁modeling	-5238
▁property	-5239
▁proposed	-5240
▁vanished	-5241
▁vexation	-5242
▁Something	-5243
▁childhood	-5244
▁existence	-5245
▁footsteps	-5246
▁interview	-5247
▁determined	-5248
▁generation	-5249
▁reflection	-5250
▁approaching	-5251
▁consciousness	-5252
00	-5253
▁7	-5254
azz	-5255
gue	-5256
ieu	-5257
off	-5258
omb	-5259
was	-5260
▁17	-5261
▁Dr	-5262
ilar	-5263
ivid	-5264
laia	-5265
rehe	-5266
ript	-5267
uine	-5268
▁III	-5269
▁Vol	-5270
▁ben	-5271
▁gay	-5272
▁sam	-5273
▁sed	-5274
▁tyr	-5275
amber	-5276
ashes	-5277
aying	-5278
▁Pres	-5279
▁West	-5280
▁fare	-5281
▁fasc	-5282
▁glim	-5283
▁hell	-5284
▁obey	-5285
▁pond	-5286
▁proc	-5287
▁rage	-5288
▁rank	-5289
▁slee	-5290
▁wash	-5291
▁whir	-5292
racted	-5293
▁Earth	-5294
▁Those	-5295
▁bones	-5296
▁calls	-5297
▁cease	-5298
▁daily	-5299
▁horiz	-5300
▁kings	-5301
▁madam	-5302
▁occup	-5303
▁roots	-5304
▁shoot	-5305
arlamov	-5306
▁Aglaia	-5307
▁Easter	-5308
▁Prokof	-5309
▁arrest	-5310
▁celebr	-5311
▁divers	-5312
▁labour	-5313
▁reject	-5314
▁senses	-5315
▁settle	-5316
▁temple	-5317
▁thence	-5318
▁Captain	-5319
▁convuls	-5320
▁dismiss	-5321
▁floated	-5322
▁highest	-5323
▁ringing	-5324
▁seeking	-5325
▁suggest	-5326
▁travell	-5327
▁worried	-5328
▁attended	-5329
▁ceremony	-5330
▁lodgings	-5331
▁millions	-5332
▁recalled	-5333
▁shrugged	-5334
▁specific	-5335
▁affection	-5336
▁creatures	-5337
▁materials	-5338
▁obviously	-5339
▁assistance	-5340
▁beforehand	-5341
▁uneasiness	-5342
▁intelligence	-5343
?’	-5344
OU	-5345
ux	-5346
”,	-5347
Now	-5348
aev	-5349
alt	-5350
ari	-5351
eny	-5352
ida	-5353
irm	-5354
rep	-5355
ste	-5356
tal	-5357
tis	-5358
▁Ph	-5359
▁Te	-5360
▁XC	-5361
acle	-5362
aled	-5363
cked	-5364
foot	-5365
iced	-5366
onse	-5367
osha	-5368
rous	-5369
ttps	-5370
ules	-5371
west	-5372
▁Sol	-5373
▁egg	-5374
▁ing	-5375
aitch	-5376
alous	-5377
cknow	-5378
iform	-5379
uting	-5380
▁Each	-5381
▁arts	-5382
▁bark	-5383
▁barn	-5384
▁damp	-5385
▁dawn	-5386
▁deaf	-5387
▁dism	-5388
▁ende	-5389
▁repl	-5390
▁sche	-5391
▁unre	-5392
Excuse	-5393
headed	-5394
inting	-5395
▁Child	-5396
▁ahead	-5397
▁goods	-5398
▁invol	-5399
▁issue	-5400
▁local	-5401
▁moust	-5402
▁purse	-5403
▁ratio	-5404
▁reply	-5405
▁ridic	-5406
▁scale	-5407
▁slave	-5408
▁stole	-5409
▁swall	-5410
▁until	-5411
atively	-5412
mission	-5413
▁Behold	-5414
▁Klimov	-5415
▁advent	-5416
▁compar	-5417
▁condem	-5418
▁empire	-5419
▁farmer	-5420
▁firmly	-5421
▁gander	-5422
▁incess	-5423
▁prodig	-5424
▁resist	-5425
▁scenes	-5426
▁scream	-5427
▁sledge	-5428
▁steppe	-5429
▁thinks	-5430
▁thread	-5431
▁vanity	-5432
▁wasted	-5433
▁wisdom	-5434
▁General	-5435
▁Western	-5436
▁arrival	-5437
▁connect	-5438
▁crowded	-5439
▁disturb	-5440
▁flowing	-5441
▁improve	-5442
▁nearest	-5443
▁obliged	-5444
▁parting	-5445
▁plainly	-5446
▁precise	-5447
▁surface	-5448
▁torment	-5449
▁Blefuscu	-5450
▁coughing	-5451
▁negative	-5452
▁profound	-5453
▁separate	-5454
▁supposed	-5455
▁sympathy	-5456
▁touching	-5457
▁unfortun	-5458
▁amazement	-5459
▁companies	-5460
▁countless	-5461
▁daughters	-5462
▁framework	-5463
▁principal	-5464
▁reasoning	-5465
▁strangely	-5466
▁variables	-5467
▁Ivanovitch	-5468
▁confidence	-5469
▁directions	-5470
▁henceforth	-5471
▁embarrassed	-5472
▁indignation	-5473
▁intelligent	-5474
Be	-5475
ds	-5476
li	-5477
oci	-5478
ofe	-5479
tte	-5480
unk	-5481
▁"'	-5482
▁Br	-5483
▁IV	-5484
▁Im	-5485
▁UD	-5486
eron	-5487
gest	-5488
lest	-5489
resp	-5490
tion	-5491
uten	-5492
▁Had	-5493
▁Him	-5494
▁Mon	-5495
▁amb	-5496
▁cit	-5497
▁ere	-5498
▁fee	-5499
▁lur	-5500
▁rad	-5501
▁row	-5502
▁wre	-5503
ailed	-5504
eling	-5505
point	-5506
venue	-5507
▁2021	-5508
▁Dash	-5509
▁Ever	-5510
▁Once	-5511
▁bran	-5512
▁dise	-5513
▁dusk	-5514
▁encl	-5515
▁excl	-5516
▁gift	-5517
▁grie	-5518
▁lone	-5519
▁mock	-5520
▁prem	-5521
▁tide	-5522
▁wept	-5523
▁wolf	-5524
ctions	-5525
ighted	-5526
liness	-5527
mitted	-5528
uished	-5529
urning	-5530
▁Katya	-5531
▁agony	-5532
▁backs	-5533
▁blows	-5534
▁colle	-5535
▁drows	-5536
▁final	-5537
▁fists	-5538
▁loath	-5539
▁patch	-5540
▁quilt	-5541
▁shawl	-5542
▁spare	-5543
▁steep	-5544
▁waits	-5545
▁weigh	-5546
▁widow	-5547
natured	-5548
▁Nikita	-5549
▁apolog	-5550
▁burden	-5551
▁bushes	-5552
▁credit	-5553
▁folded	-5554
▁judges	-5555
▁linear	-5556
▁shocks	-5557
▁shouts	-5558
▁string	-5559
▁varied	-5560
▁worthy	-5561
▁Alyosha	-5562
▁Without	-5563
▁counter	-5564
▁cunning	-5565
▁dischar	-5566
▁dragged	-5567
▁equally	-5568
▁genuine	-5569
▁healthy	-5570
▁moments	-5571
▁nervous	-5572
▁pulling	-5573
▁railway	-5574
▁respond	-5575
▁showing	-5576
▁species	-5577
▁whoever	-5578
▁accompan	-5579
▁clutched	-5580
▁creation	-5581
▁floating	-5582
▁gracious	-5583
▁magnific	-5584
▁nowadays	-5585
▁platform	-5586
▁reaching	-5587
▁solitude	-5588
▁subjects	-5589
▁watchman	-5590
▁construct	-5591
▁delirious	-5592
▁desperate	-5593
▁noiseless	-5594
▁quivering	-5595
▁conditions	-5596
▁convenient	-5597
▁importance	-5598
▁sufficient	-5599
▁thoroughly	-5600
▁university	-5601
▁disposition	-5602
EN	-5603
_;	-5604
lin	-5605
aned	-5606
ekov	-5607
evna	-5608
omon	-5609
pled	-5610
vial	-5611
▁Dan	-5612
▁Dem	-5613
▁Fed	-5614
▁Psy	-5615
▁Str	-5616
▁bul	-5617
▁der	-5618
▁dyn	-5619
▁hyp	-5620
▁mut	-5621
▁vac	-5622
aging	-5623
arvar	-5624
faced	-5625
shine	-5626
sters	-5627
urely	-5628
ushes	-5629
▁City	-5630
▁Ilya	-5631
▁Life	-5632
▁Reve	-5633
▁Thus	-5634
▁dict	-5635
▁fame	-5636
▁feed	-5637
▁inse	-5638
▁knee	-5639
▁mare	-5640
▁ming	-5641
▁myri	-5642
▁pang	-5643
▁pled	-5644
▁prim	-5645
▁prud	-5646
▁puff	-5647
▁role	-5648
▁rush	-5649
▁toss	-5650
▁unin	-5651
▁writ	-5652
antial	-5653
hattan	-5654
herent	-5655
illing	-5656
ushkin	-5657
▁Liber	-5658
▁Since	-5659
▁accum	-5660
▁appet	-5661
▁block	-5662
▁demon	-5663
▁dense	-5664
▁domin	-5665
▁eaten	-5666
▁erect	-5667
▁exerc	-5668
▁fragr	-5669
▁kinds	-5670
▁occur	-5671
▁range	-5672
▁stamp	-5673
▁tempt	-5674
▁weeks	-5675
olation	-5676
reading	-5677
▁People	-5678
▁Timofe	-5679
▁acknow	-5680
▁brings	-5681
▁centre	-5682
▁clerks	-5683
▁decent	-5684
▁frenzy	-5685
▁frozen	-5686
▁preced	-5687
▁stayed	-5688
▁surely	-5689
▁Section	-5690
▁arrange	-5691
▁cleared	-5692
▁colours	-5693
▁conject	-5694
▁opening	-5695
▁princes	-5696
▁related	-5697
▁smaller	-5698
▁temples	-5699
▁American	-5700
▁approxim	-5701
▁attitude	-5702
▁coachman	-5703
▁frequent	-5704
▁mistaken	-5705
▁patience	-5706
▁provides	-5707
▁suffered	-5708
▁superior	-5709
▁addressed	-5710
▁delicious	-5711
▁discourse	-5712
▁loathsome	-5713
▁practices	-5714
▁schoolboy	-5715
▁parameters	-5716
▁distinguish	-5717
▁transparent	-5718
.1	-5719
CP	-5720
ON	-5721
lt	-5722
▁i	-5723
ept	-5724
lls	-5725
uce	-5726
▁cy	-5727
When	-5728
bler	-5729
emet	-5730
evol	-5731
imen	-5732
then	-5733
udes	-5734
▁(19	-5735
▁Bel	-5736
▁Ham	-5737
▁Sil	-5738
▁Sit	-5739
▁ens	-5740
▁fol	-5741
▁oil	-5742
aping	-5743
atisf	-5744
forms	-5745
inger	-5746
ishes	-5747
olate	-5748
owder	-5749
reads	-5750
urity	-5751
▁Song	-5752
▁buck	-5753
▁fain	-5754
▁heap	-5755
▁lock	-5756
▁mile	-5757
▁orph	-5758
▁perf	-5759
▁puts	-5760
▁rout	-5761
eronim	-5762
icians	-5763
making	-5764
▁Still	-5765
▁Varka	-5766
▁Varya	-5767
▁ashes	-5768
▁cemet	-5769
▁cheap	-5770
▁dared	-5771
▁elbow	-5772
▁ghost	-5773
▁guest	-5774
▁harsh	-5775
▁https	-5776
▁legal	-5777
▁medic	-5778
▁monks	-5779
▁saved	-5780
▁scand	-5781
▁shake	-5782
▁stage	-5783
▁stout	-5784
▁sweep	-5785
▁trick	-5786
▁wound	-5787
natural	-5788
ustomed	-5789
▁Varvar	-5790
▁abroad	-5791
▁advice	-5792
▁cannon	-5793
▁discon	-5794
▁flower	-5795
▁humble	-5796
▁inches	-5797
▁income	-5798
▁incomp	-5799
▁partly	-5800
▁recess	-5801
▁sleeps	-5802
▁steady	-5803
▁wicked	-5804
ittering	-5805
▁Psyekov	-5806
▁consent	-5807
▁courage	-5808
▁deliber	-5809
▁efforts	-5810
▁fearful	-5811
▁finally	-5812
▁forests	-5813
▁million	-5814
▁produce	-5815
▁stepped	-5816
▁torture	-5817
▁trivial	-5818
▁workman	-5819
▁dreaming	-5820
▁frowning	-5821
▁glorious	-5822
▁memories	-5823
▁perspect	-5824
▁planning	-5825
▁preserve	-5826
▁stifling	-5827
▁treasure	-5828
▁uneasily	-5829
▁upstairs	-5830
▁Manhattan	-5831
▁cigarette	-5832
▁including	-5833
▁necessity	-5834
▁reckoning	-5835
▁synthesis	-5836
▁generative	-5837
▁philosophy	-5838
▁suspicious	-5839
▁relationship	-5840
▁schoolmaster	-5841
▁significance	-5842
RO	-5843
oh	-5844
▁’	-5845
All	-5846
arc	-5847
eys	-5848
hka	-5849
isp	-5850
ula	-5851
ulf	-5852
▁CX	-5853
▁Cl	-5854
▁du	-5855
▁eh	-5856
▁tu	-5857
anks	-5858
apan	-5859
bage	-5860
ford	-5861
idel	-5862
iput	-5863
ival	-5864
lict	-5865
olos	-5866
umps	-5867
▁Red	-5868
▁Tow	-5869
▁sem	-5870
agues	-5871
atory	-5872
erity	-5873
itate	-5874
maker	-5875
rious	-5876
works	-5877
▁bust	-5878
▁dart	-5879
▁deny	-5880
▁doub	-5881
▁eleg	-5882
▁fest	-5883
▁male	-5884
▁norm	-5885
▁tiny	-5886
▁wret	-5887
Please	-5888
anging	-5889
bility	-5890
otchka	-5891
verage	-5892
▁Among	-5893
▁Greek	-5894
▁Japan	-5895
▁Never	-5896
▁Siber	-5897
▁arise	-5898
▁avail	-5899
▁bored	-5900
▁chill	-5901
▁dynam	-5902
▁golos	-5903
▁input	-5904
▁lodge	-5905
▁major	-5906
▁purch	-5907
▁roads	-5908
▁shoes	-5909
▁simpl	-5910
▁sniff	-5911
▁sword	-5912
▁upset	-5913
▁vague	-5914
atching	-5915
ulating	-5916
utenant	-5917
▁Figure	-5918
▁France	-5919
▁Having	-5920
▁artist	-5921
▁assemb	-5922
▁associ	-5923
▁bloody	-5924
▁bought	-5925
▁bridge	-5926
▁cattle	-5927
▁concer	-5928
▁contem	-5929
▁coward	-5930
▁defend	-5931
▁detail	-5932
▁endeav	-5933
▁failed	-5934
▁golden	-5935
▁prayed	-5936
▁recent	-5937
▁repeat	-5938
▁shapes	-5939
▁signal	-5940
▁strain	-5941
▁sunset	-5942
▁ticket	-5943
▁useful	-5944
ironment	-5945
rastruct	-5946
▁Ieronim	-5947
▁actions	-5948
▁applied	-5949
▁compact	-5950
▁consult	-5951
▁cutting	-5952
▁doctors	-5953
▁factors	-5954
▁horizon	-5955
▁injured	-5956
▁lodgers	-5957
▁monarch	-5958
▁oppress	-5959
▁pilgrim	-5960
▁remains	-5961
▁require	-5962
▁sighing	-5963
▁swiftly	-5964
▁travels	-5965
▁virtues	-5966
▁Everyone	-5967
▁advanced	-5968
▁conceive	-5969
▁director	-5970
▁diseases	-5971
▁disposed	-5972
▁feverish	-5973
▁flashing	-5974
▁military	-5975
▁offering	-5976
▁required	-5977
▁response	-5978
▁services	-5979
▁trembled	-5980
▁whiskers	-5981
▁Reverence	-5982
▁Therefore	-5983
▁commanded	-5984
▁concluded	-5985
▁ignorance	-5986
▁observing	-5987
▁pronounced	-5988
▁astonishment	-5989
):	-5990
amn	-5991
ero	-5992
gly	-5993
hon	-5994
hum	-5995
ode	-5996
ona	-5997
▁Pa	-5998
▁[2	-5999
enth	-6000
eous	-6001
give	-6002
laim	-6003
nant	-6004
osen	-6005
otes	-6006
tles	-6007
▁Hob	-6008
▁Joy	-6009
▁lip	-6010
▁mas	-6011
▁nag	-6012
▁opt	-6013
▁reb	-6014
▁rhy	-6015
▁san	-6016
ardon	-6017
emies	-6018
icken	-6019
uries	-6020
▁Holy	-6021
▁Mean	-6022
▁Yevg	-6023
▁dazz	-6024
▁fant	-6025
▁hymn	-6026
▁inev	-6027
▁jack	-6028
▁join	-6029
▁mudd	-6030
▁nurs	-6031
▁obst	-6032
▁rasc	-6033
▁runs	-6034
▁salt	-6035
▁shif	-6036
▁sust	-6037
▁ugly	-6038
alikov	-6039
ground	-6040
iation	-6041
olding	-6042
ompass	-6043
vering	-6044
▁Could	-6045
▁Vanya	-6046
▁angel	-6047
▁aught	-6048
▁bloom	-6049
▁bloss	-6050
▁champ	-6051
▁clock	-6052
▁ferry	-6053
▁fools	-6054
▁fount	-6055
▁heels	-6056
▁lamps	-6057
▁mixed	-6058
▁mould	-6059
▁newsp	-6060
▁obedi	-6061
▁resem	-6062
▁scorn	-6063
▁stake	-6064
▁vexed	-6065
athered	-6066
clothes	-6067
illiput	-6068
itional	-6069
respond	-6070
▁Harold	-6071
▁Little	-6072
▁anchor	-6073
▁choose	-6074
▁crowds	-6075
▁danced	-6076
▁decide	-6077
▁engage	-6078
▁latent	-6079
▁learnt	-6080
▁modest	-6081
▁passes	-6082
▁plenty	-6083
▁profit	-6084
▁ragged	-6085
▁roused	-6086
▁sacrif	-6087
▁storey	-6088
▁unless	-6089
▁waving	-6090
▁wheels	-6091
▁Hobotov	-6092
▁Timofey	-6093
▁authors	-6094
▁benefit	-6095
▁concent	-6096
▁engaged	-6097
▁happens	-6098
▁haughty	-6099
▁inspect	-6100
▁largest	-6101
▁mothers	-6102
▁mounted	-6103
▁painful	-6104
▁painted	-6105
▁problem	-6106
▁request	-6107
▁restaur	-6108
▁rubbing	-6109
▁uniform	-6110
▁watched	-6111
▁withdra	-6112
▁Dashutka	-6113
▁Pioneers	-6114
▁bitterly	-6115
▁branches	-6116
▁cemetery	-6117
▁confined	-6118
▁pictures	-6119
▁pressing	-6120
▁properly	-6121
▁silently	-6122
▁standard	-6123
▁sunshine	-6124
▁terribly	-6125
▁boundless	-6126
▁buildings	-6127
▁essential	-6128
▁introduce	-6129
▁parameter	-6130
▁scattered	-6131
▁waistcoat	-6132
▁wandering	-6133
▁accustomed	-6134
▁management	-6135
▁grandmother	-6136
▁overwhelmed	-6137
▁unfortunate	-6138
AS	-6139
AT	-6140
An	-6141
Did	-6142
alk	-6143
ama	-6144
apt	-6145
bru	-6146
idd	-6147
rus	-6148
ums	-6149
who	-6150
zel	-6151
▁BL	-6152
▁Sm	-6153
abbe	-6154
abby	-6155
emst	-6156
hern	-6157
ikol	-6158
more	-6159
oton	-6160
rial	-6161
uals	-6162
wife	-6163
▁Col	-6164
▁Sat	-6165
▁UDT	-6166
▁cav	-6167
▁rot	-6168
anted	-6169
hetic	-6170
inate	-6171
inent	-6172
lines	-6173
▁Next	-6174
▁Sund	-6175
▁blur	-6176
▁boot	-6177
▁clay	-6178
▁deck	-6179
▁hoof	-6180
▁leaf	-6181
▁mast	-6182
▁ment	-6183
▁nast	-6184
▁oath	-6185
▁pipe	-6186
▁rejo	-6187
▁seam	-6188
▁tast	-6189
▁vers	-6190
gments	-6191
porate	-6192
urally	-6193
▁Speak	-6194
▁Zemst	-6195
▁boats	-6196
▁canal	-6197
▁drown	-6198
▁fence	-6199
▁grows	-6200
▁hoped	-6201
▁index	-6202
▁irres	-6203
▁mustn	-6204
▁owing	-6205
▁shops	-6206
▁sings	-6207
▁speed	-6208
▁tenor	-6209
▁theat	-6210
▁tower	-6211
▁trump	-6212
itution	-6213
▁beaten	-6214
▁calmly	-6215
▁distur	-6216
▁experi	-6217
▁formed	-6218
▁global	-6219
▁immort	-6220
▁incred	-6221
▁parted	-6222
▁ponder	-6223
▁repuls	-6224
▁rubbed	-6225
▁theore	-6226
▁waiter	-6227
▁wander	-6228
▁Freedom	-6229
▁assumed	-6230
▁awfully	-6231
▁disease	-6232
▁diverse	-6233
▁enemies	-6234
▁refresh	-6235
▁refused	-6236
▁sailors	-6237
▁shouldn	-6238
▁streams	-6239
▁visions	-6240
▁visited	-6241
▁abruptly	-6242
▁accepted	-6243
▁actually	-6244
▁carriers	-6245
▁identity	-6246
▁judgment	-6247
▁pioneers	-6248
▁pointing	-6249
▁presents	-6250
▁province	-6251
▁rational	-6252
▁situated	-6253
▁Meanwhile	-6254
▁Seryozhka	-6255
▁Tchalikov	-6256
▁intention	-6257
▁languages	-6258
▁movements	-6259
▁philosoph	-6260
▁preparing	-6261
▁strangers	-6262
▁comparison	-6263
▁concerning	-6264
▁confession	-6265
▁correspond	-6266
▁divergence	-6267
▁literature	-6268
▁passengers	-6269
▁prosecutor	-6270
▁considering	-6271
▁exceedingly	-6272
▁experiments	-6273
▁contemptible	-6274
At	-6275
IS	-6276
PI	-6277
Sh	-6278
?--	-6279
doi	-6280
law	-6281
oqu	-6282
uit	-6283
▁Eh	-6284
▁Fe	-6285
▁Za	-6286
ateg	-6287
away	-6288
crib	-6289
esus	-6290
eyev	-6291
grat	-6292
ived	-6293
oser	-6294
port	-6295
pses	-6296
reci	-6297
utch	-6298
▁App	-6299
▁ECP	-6300
▁Fom	-6301
▁Fro	-6302
▁Sty	-6303
▁oft	-6304
▁ric	-6305
▁shy	-6306
break	-6307
ciful	-6308
ellie	-6309
entle	-6310
erers	-6311
field	-6312
icate	-6313
ieves	-6314
itter	-6315
osure	-6316
stone	-6317
▁Chin	-6318
▁Cons	-6319
▁Grig	-6320
▁Land	-6321
▁Lyse	-6322
▁astr	-6323
▁baff	-6324
▁bend	-6325
▁cens	-6326
▁hadn	-6327
▁idle	-6328
▁mart	-6329
▁pawn	-6330
▁shot	-6331
▁sunk	-6332
▁task	-6333
▁upro	-6334
▁vile	-6335
aiting	-6336
erving	-6337
ilitch	-6338
imenov	-6339
inkled	-6340
ograph	-6341
pelled	-6342
▁badly	-6343
▁brute	-6344
▁choir	-6345
▁drums	-6346
▁farms	-6347
▁holes	-6348
▁husky	-6349
▁lofty	-6350
▁pleas	-6351
▁print	-6352
▁races	-6353
▁renew	-6354
▁skies	-6355
▁skull	-6356
▁spoon	-6357
▁stool	-6358
▁sugar	-6359
▁today	-6360
olonial	-6361
▁Kalash	-6362
▁Listen	-6363
▁Nellie	-6364
▁Seeing	-6365
▁amazed	-6366
▁betray	-6367
▁bewild	-6368
▁cabman	-6369
▁career	-6370
▁convey	-6371
▁daring	-6372
▁easier	-6373
▁equity	-6374
▁estate	-6375
▁events	-6376
▁genius	-6377
▁graves	-6378
▁hiding	-6379
▁insist	-6380
▁kisses	-6381
▁kitten	-6382
▁lasted	-6383
▁notion	-6384
▁plough	-6385
▁prepar	-6386
▁report	-6387
▁secure	-6388
▁superb	-6389
atisfied	-6390
▁Siberia	-6391
▁Zemstvo	-6392
▁balance	-6393
▁blowing	-6394
▁carpent	-6395
▁devoted	-6396
▁drawers	-6397
▁eagerly	-6398
▁elastic	-6399
▁feather	-6400
▁frowned	-6401
▁hideous	-6402
▁islands	-6403
▁jealous	-6404
▁managed	-6405
▁midwife	-6406
▁network	-6407
▁protest	-6408
▁quarrel	-6409
▁staying	-6410
▁upwards	-6411
▁Lilliput	-6412
▁admitted	-6413
▁blessing	-6414
▁cheerful	-6415
▁horrible	-6416
▁increase	-6417
▁kindness	-6418
▁mournful	-6419
▁passions	-6420
▁restless	-6421
▁restrain	-6422
▁sentence	-6423
▁throwing	-6424
▁tomorrow	-6425
▁uttering	-6426
▁ventured	-6427
▁Lysevitch	-6428
▁advancing	-6429
▁governess	-6430
▁moonlight	-6431
▁structure	-6432
▁impatience	-6433
▁statistics	-6434
▁Kalashnikov	-6435
▁Timofeyitch	-6436
▁infrastruct	-6437
▁Semyonovitch	-6438
▁mechanically	-6439
gu	-6440
ox	-6441
tr	-6442
bon	-6443
can	-6444
mar	-6445
▁10	-6446
▁Tw	-6447
Give	-6448
Tell	-6449
anor	-6450
aren	-6451
boat	-6452
epan	-6453
gypt	-6454
hile	-6455
mosp	-6456
oral	-6457
ovya	-6458
stru	-6459
▁Bet	-6460
▁Car	-6461
▁Whe	-6462
▁flu	-6463
▁lic	-6464
▁lux	-6465
▁rib	-6466
angle	-6467
apkin	-6468
ember	-6469
eming	-6470
iable	-6471
iforn	-6472
ights	-6473
olars	-6474
tical	-6475
▁Down	-6476
▁Pers	-6477
▁acad	-6478
▁bath	-6479
▁capt	-6480
▁cord	-6481
▁crad	-6482
▁deed	-6483
▁earl	-6484
▁echo	-6485
▁fund	-6486
▁inex	-6487
▁keys	-6488
▁monk	-6489
▁nest	-6490
▁rang	-6491
▁root	-6492
▁sauc	-6493
▁scal	-6494
▁sobs	-6495
▁sway	-6496
▁tale	-6497
▁trap	-6498
▁wool	-6499
astasy	-6500
levant	-6501
linear	-6502
uously	-6503
▁Rabbe	-6504
▁adorn	-6505
▁cloth	-6506
▁disag	-6507
▁exhib	-6508
▁fifth	-6509
▁grain	-6510
▁honey	-6511
▁insol	-6512
▁minds	-6513
▁seize	-6514
▁sighs	-6515
▁title	-6516
▁tools	-6517
▁total	-6518
▁wives	-6519
ameless	-6520
askovya	-6521
▁During	-6522
▁armies	-6523
▁atmosp	-6524
▁belief	-6525
▁corrid	-6526
▁crimes	-6527
▁deject	-6528
▁duties	-6529
▁excess	-6530
▁fortun	-6531
▁fruits	-6532
▁hunter	-6533
▁intent	-6534
▁inward	-6535
▁laying	-6536
▁leaned	-6537
▁liquid	-6538
▁perman	-6539
▁powder	-6540
▁prefer	-6541
▁remote	-6542
▁rested	-6543
▁sticks	-6544
▁talent	-6545
▁target	-6546
▁warmly	-6547
▁Avdeyev	-6548
▁Pimenov	-6549
▁Solomon	-6550
▁Volodya	-6551
▁artific	-6552
▁begging	-6553
▁chemist	-6554
▁despise	-6555
▁embrace	-6556
▁faintly	-6557
▁gardens	-6558
▁holiday	-6559
▁matches	-6560
▁mocking	-6561
▁pensive	-6562
▁replied	-6563
▁Anastasy	-6564
▁European	-6565
▁announce	-6566
▁anywhere	-6567
▁drunkard	-6568
▁fighting	-6569
▁gathered	-6570
▁helpless	-6571
▁maintain	-6572
▁perceive	-6573
▁physical	-6574
▁produced	-6575
▁squeezed	-6576
▁strongly	-6577
▁Andreitch	-6578
▁afternoon	-6579
▁fearfully	-6580
▁increased	-6581
▁inflation	-6582
▁instantly	-6583
▁ministers	-6584
▁muttering	-6585
▁perpetual	-6586
▁senseless	-6587
▁compassion	-6588
▁prodigious	-6589
▁regression	-6590
▁spectacles	-6591
▁struggling	-6592
▁description	-6593
▁disappeared	-6594
▁forgiveness	-6595
▁immortality	-6596
▁observation	-6597
▁remembering	-6598
▁indifference	-6599
▁surroundings	-6600
▁distinguished	-6601
.2	-6602
ym	-6603
▁|	-6604
--"	-6605
:--	-6606
Can	-6607
acc	-6608
ada	-6609
alf	-6610
imn	-6611
inc	-6612
mes	-6613
ocr	-6614
olt	-6615
ped	-6616
rer	-6617
rog	-6618
ros	-6619
Take	-6620
book	-6621
four	-6622
ipts	-6623
mend	-6624
odim	-6625
onom	-6626
ores	-6627
orms	-6628
orus	-6629
rian	-6630
rust	-6631
wart	-6632
▁Add	-6633
▁Des	-6634
▁Ipp	-6635
▁Mak	-6636
▁Zhm	-6637
▁fix	-6638
▁gig	-6639
▁mun	-6640
▁unb	-6641
▁unp	-6642
▁ven	-6643
▁wip	-6644
chers	-6645
cking	-6646
evsky	-6647
icing	-6648
ieved	-6649
iques	-6650
irgin	-6651
ograp	-6652
olded	-6653
▁Asia	-6654
▁Five	-6655
▁Lear	-6656
▁aunt	-6657
▁crew	-6658
▁exch	-6659
▁eyel	-6660
▁flag	-6661
▁guns	-6662
▁hasn	-6663
▁loat	-6664
▁oats	-6665
▁pine	-6666
▁rate	-6667
▁rent	-6668
▁sarc	-6669
▁shar	-6670
anding	-6671
angled	-6672
isting	-6673
resses	-6674
▁Three	-6675
▁accom	-6676
▁alike	-6677
▁amuse	-6678
▁argue	-6679
▁beach	-6680
▁creep	-6681
▁fatal	-6682
▁fetch	-6683
▁inval	-6684
▁moves	-6685
▁outer	-6686
▁paint	-6687
▁plays	-6688
▁poets	-6689
▁seren	-6690
▁shine	-6691
▁skill	-6692
▁steal	-6693
▁truly	-6694
▁trunk	-6695
▁vener	-6696
Nothing	-6697
Perhaps	-6698
ception	-6699
▁Market	-6700
▁Others	-6701
▁Stepan	-6702
▁altern	-6703
▁dashed	-6704
▁fascin	-6705
▁landsc	-6706
▁malign	-6707
▁marked	-6708
▁normal	-6709
▁onward	-6710
▁peeped	-6711
▁prices	-6712
▁quarre	-6713
▁remark	-6714
▁sample	-6715
▁shaven	-6716
▁thanks	-6717
▁Anyutka	-6718
▁Fomitch	-6719
▁Ippolit	-6720
▁Neither	-6721
▁Nikodim	-6722
▁Zhmuhin	-6723
▁absence	-6724
▁careful	-6725
▁curtain	-6726
▁descend	-6727
▁divided	-6728
▁element	-6729
▁forbear	-6730
▁furious	-6731
▁helping	-6732
▁impulse	-6733
▁individ	-6734
▁machine	-6735
▁missing	-6736
▁mystery	-6737
▁persist	-6738
▁scandal	-6739
▁seventy	-6740
▁sinking	-6741
▁studied	-6742
▁tongues	-6743
▁worship	-6744
▁Californ	-6745
▁Lentilov	-6746
▁administ	-6747
▁argument	-6748
▁assembly	-6749
▁compared	-6750
▁covering	-6751
▁demonstr	-6752
▁despised	-6753
▁eighteen	-6754
▁electric	-6755
▁eternity	-6756
▁examined	-6757
▁farthing	-6758
▁forgiven	-6759
▁hastened	-6760
▁independ	-6761
▁mounting	-6762
▁numerous	-6763
▁peaceful	-6764
▁prairies	-6765
▁prisoner	-6766
▁valuable	-6767
▁President	-6768
▁authority	-6769
▁challenge	-6770
▁expensive	-6771
▁favourite	-6772
▁moustache	-6773
▁officials	-6774
▁religious	-6775
▁revolting	-6776
▁slightest	-6777
▁substance	-6778
▁transport	-6779
▁undressed	-6780
▁wondering	-6781
▁Prokofitch	-6782
▁atmosphere	-6783
▁exhaustion	-6784
▁introduced	-6785
▁investment	-6786
▁operations	-6787
▁perplexity	-6788
▁ridiculous	-6789
▁accumulated	-6790
▁grandfather	-6791
▁substantial	-6792
▁consideration	-6793
1,	-6794
AL	-6795
ET	-6796
wl	-6797
/10	-6798
;--	-6799
Get	-6800
amy	-6801
don	-6802
iev	-6803
nes	-6804
sch	-6805
yes	-6806
▁Bu	-6807
▁Su	-6808
▁[3	-6809
abor	-6810
aïve	-6811
east	-6812
iate	-6813
itor	-6814
oles	-6815
olya	-6816
omin	-6817
quis	-6818
rand	-6819
reet	-6820
udge	-6821
ukin	-6822
ware	-6823
▁Day	-6824
▁Far	-6825
▁Hay	-6826
▁Lat	-6827
▁Mit	-6828
▁Pod	-6829
▁Ver	-6830
▁Von	-6831
▁enh	-6832
▁fac	-6833
▁foc	-6834
▁foe	-6835
▁hom	-6836
▁lan	-6837
▁rat	-6838
▁woe	-6839
agger	-6840
allel	-6841
cause	-6842
grown	-6843
▁Comp	-6844
▁Cont	-6845
▁Last	-6846
▁Spir	-6847
▁Wait	-6848
▁bund	-6849
▁depe	-6850
▁duly	-6851
▁emer	-6852
▁envy	-6853
▁glow	-6854
▁hint	-6855
▁hook	-6856
▁jury	-6857
▁mild	-6858
▁pall	-6859
▁seed	-6860
▁twin	-6861
▁vine	-6862
apable	-6863
atives	-6864
lement	-6865
leness	-6866
ternal	-6867
▁abuse	-6868
▁ample	-6869
▁boast	-6870
▁borne	-6871
▁citiz	-6872
▁crazy	-6873
▁decor	-6874
▁fling	-6875
▁gaily	-6876
▁merry	-6877
▁naïve	-6878
▁plate	-6879
▁scrut	-6880
▁sober	-6881
▁steel	-6882
henomen	-6883
inement	-6884
ologies	-6885
raction	-6886
utation	-6887
▁Excuse	-6888
▁Frolov	-6889
▁affair	-6890
▁amount	-6891
▁brutes	-6892
▁chants	-6893
▁defect	-6894
▁desert	-6895
▁dismay	-6896
▁disple	-6897
▁finish	-6898
▁groups	-6899
▁humbly	-6900
▁member	-6901
▁nerves	-6902
▁nobody	-6903
▁poured	-6904
▁propos	-6905
▁pushed	-6906
▁relief	-6907
▁reward	-6908
▁rolled	-6909
▁ruined	-6910
▁saucer	-6911
▁shabby	-6912
▁slaves	-6913
▁sleeve	-6914
▁traces	-6915
▁wretch	-6916
iversity	-6917
▁archite	-6918
▁average	-6919
▁behaved	-6920
▁cabbage	-6921
▁congrat	-6922
▁conquer	-6923
▁examine	-6924
▁expense	-6925
▁footman	-6926
▁miracle	-6927
▁pattern	-6928
▁phrases	-6929
▁prolong	-6930
▁secrets	-6931
▁slaught	-6932
▁stretch	-6933
▁waggons	-6934
Houyhnhnm	-6935
▁Seryozha	-6936
▁Varlamov	-6937
▁absorbed	-6938
▁barefoot	-6939
▁changing	-6940
▁childish	-6941
▁corridor	-6942
▁deceived	-6943
▁directed	-6944
▁disorder	-6945
▁embraced	-6946
▁faithful	-6947
▁hurrying	-6948
▁incident	-6949
▁pictured	-6950
▁piercing	-6951
▁studying	-6952
▁Christian	-6953
▁carriages	-6954
▁confessed	-6955
▁continent	-6956
▁encompass	-6957
▁enjoyment	-6958
▁fortnight	-6959
▁functions	-6960
▁incapable	-6961
▁invention	-6962
▁irritated	-6963
▁occasions	-6964
▁otherwise	-6965
▁performed	-6966
▁Nikolaitch	-6967
▁comprehens	-6968
▁enthusiasm	-6969
▁hesitation	-6970
▁reflecting	-6971
▁resolutely	-6972
▁restaurant	-6973
▁stretching	-6974
▁magnificent	-6975
▁philosopher	-6976
▁respectable	-6977
▁considerable	-6978
!’	-6979
02	-6980
4.	-6981
OR	-6982
cel	-6983
dri	-6984
eed	-6985
his	-6986
jud	-6987
oor	-6988
rim	-6989
rou	-6990
two	-6991
ugg	-6992
zes	-6993
▁AN	-6994
▁Em	-6995
▁Jo	-6996
▁Os	-6997
etle	-6998
even	-6999
gain	-7000
ifts	-7001
igns	-7002
isoy	-7003
ocra	-7004
olis	-7005
orge	-7006
▁Bro	-7007
▁Del	-7008
▁Fur	-7009
▁Get	-7010
▁Has	-7011
▁Ign	-7012
▁Int	-7013
▁Mis	-7014
▁Wel	-7015
▁cub	-7016
▁dil	-7017
▁lap	-7018
▁scy	-7019
▁via	-7020
inine	-7021
oming	-7022
onder	-7023
pring	-7024
trees	-7025
▁2019	-7026
▁Does	-7027
▁Kist	-7028
▁Koch	-7029
▁Lida	-7030
▁Nata	-7031
▁afar	-7032
▁aged	-7033
▁brut	-7034
▁bulk	-7035
▁cape	-7036
▁damn	-7037
▁dash	-7038
▁dece	-7039
▁disd	-7040
▁eggs	-7041
▁grin	-7042
▁meek	-7043
▁prel	-7044
▁quad	-7045
▁scra	-7046
▁sets	-7047
▁shel	-7048
▁stal	-7049
▁sung	-7050
▁temp	-7051
▁text	-7052
▁tore	-7053
▁urge	-7054
▁wing	-7055
encies	-7056
haired	-7057
inding	-7058
iptsov	-7059
terest	-7060
umbers	-7061
unting	-7062
▁Egypt	-7063
▁Kolya	-7064
▁Makar	-7065
▁Night	-7066
▁Sisoy	-7067
▁apple	-7068
▁clust	-7069
▁comic	-7070
▁costs	-7071
▁float	-7072
▁giant	-7073
▁hated	-7074
▁lunch	-7075
▁manif	-7076
▁marks	-7077
▁marve	-7078
▁noisy	-7079
▁plant	-7080
▁risen	-7081
▁roofs	-7082
▁shift	-7083
▁shock	-7084
▁sixty	-7085
▁stead	-7086
▁stoop	-7087
fortune	-7088
ication	-7089
ropolis	-7090
▁Rabbek	-7091
▁Zaikin	-7092
▁arrows	-7093
▁assess	-7094
▁barrel	-7095
▁courts	-7096
▁echoes	-7097
▁joyful	-7098
▁kopeck	-7099
▁lazily	-7100
▁lively	-7101
▁louder	-7102
▁pencil	-7103
▁prejud	-7104
▁prompt	-7105
▁punish	-7106
▁rascal	-7107
▁reluct	-7108
▁signed	-7109
▁speaks	-7110
▁specul	-7111
▁supply	-7112
▁Further	-7113
▁Hamburg	-7114
▁Nikanor	-7115
▁Thought	-7116
▁baffled	-7117
▁chiefly	-7118
▁collect	-7119
▁colonel	-7120
▁draught	-7121
▁dreamed	-7122
▁emotion	-7123
▁gleamed	-7124
▁knocked	-7125
▁lifting	-7126
▁pension	-7127
▁reconst	-7128
▁seasons	-7129
▁sending	-7130
▁servers	-7131
▁sharply	-7132
▁slumber	-7133
▁teeming	-7134
▁thyself	-7135
▁vessels	-7136
▁victory	-7137
itionally	-7138
▁Kistunov	-7139
▁appetite	-7140
▁belonged	-7141
▁capacity	-7142
▁datasets	-7143
▁daylight	-7144
▁definite	-7145
▁extended	-7146
▁families	-7147
▁graceful	-7148
▁greedily	-7149
▁insulted	-7150
▁knocking	-7151
▁medicine	-7152
▁obtained	-7153
▁particul	-7154
▁petition	-7155
▁phenomen	-7156
▁quantity	-7157
▁snatched	-7158
▁somebody	-7159
▁suitable	-7160
▁surveyor	-7161
▁abandoned	-7162
▁carpenter	-7163
▁ceaseless	-7164
▁condemned	-7165
▁delivered	-7166
▁developed	-7167
▁fantastic	-7168
▁nonlinear	-7169
▁passenger	-7170
▁political	-7171
▁proceeded	-7172
▁receiving	-7173
▁recovered	-7174
▁shivering	-7175
▁unnatural	-7176
▁witnesses	-7177
▁California	-7178
▁discharged	-7179
▁discussion	-7180
▁forgetting	-7181
▁frequently	-7182
▁hesitating	-7183
▁metropolis	-7184
▁recognised	-7185
▁structures	-7186
▁surrounded	-7187
▁travellers	-7188
▁Shtchiptsov	-7189
▁consumption	-7190
▁destruction	-7191
▁environment	-7192
▁noiselessly	-7193
▁applications	-7194
▁countenances	-7195
▁intellectual	-7196
CH	-7197
ES	-7198
sm	-7199
arf	-7200
eva	-7201
hor	-7202
hov	-7203
ley	-7204
orr	-7205
uds	-7206
vol	-7207
▁IN	-7208
▁Sw	-7209
▁gy	-7210
From	-7211
aska	-7212
etic	-7213
eyed	-7214
ffee	-7215
icit	-7216
idol	-7217
last	-7218
ldom	-7219
outs	-7220
pher	-7221
rers	-7222
rift	-7223
rors	-7224
this	-7225
vity	-7226
yard	-7227
▁200	-7228
▁API	-7229
▁Acc	-7230
▁Nav	-7231
▁War	-7232
▁agg	-7233
▁bla	-7234
▁map	-7235
▁mic	-7236
▁orb	-7237
▁woo	-7238
after	-7239
inals	-7240
neath	-7241
ppers	-7242
press	-7243
usive	-7244
▁Arty	-7245
▁Half	-7246
▁None	-7247
▁Open	-7248
▁beds	-7249
▁buff	-7250
▁cock	-7251
▁cure	-7252
▁impr	-7253
▁inco	-7254
▁irre	-7255
▁kitt	-7256
▁lake	-7257
▁ling	-7258
▁load	-7259
▁lull	-7260
▁nour	-7261
▁ride	-7262
▁rope	-7263
▁ruff	-7264
▁stol	-7265
▁term	-7266
Father	-7267
aching	-7268
anning	-7269
idents	-7270
ptuous	-7271
rified	-7272
rouble	-7273
shaped	-7274
strous	-7275
▁Ignat	-7276
▁Zotov	-7277
▁acute	-7278
▁apply	-7279
▁brill	-7280
▁camer	-7281
▁claws	-7282
▁crush	-7283
▁empir	-7284
▁flick	-7285
▁flush	-7286
▁guilt	-7287
▁hotel	-7288
▁incor	-7289
▁manly	-7290
▁media	-7291
▁nasty	-7292
▁older	-7293
▁pains	-7294
▁paths	-7295
▁prior	-7296
▁puppy	-7297
▁sheet	-7298
▁snake	-7299
▁spoil	-7300
▁swarm	-7301
▁theme	-7302
▁twins	-7303
▁verse	-7304
▁waked	-7305
▁wreck	-7306
ciences	-7307
idolons	-7308
isation	-7309
reeable	-7310
stained	-7311
▁Alexey	-7312
▁barbar	-7313
▁batter	-7314
▁causes	-7315
▁chains	-7316
▁chosen	-7317
▁coffee	-7318
▁commer	-7319
▁compet	-7320
▁corpse	-7321
▁cradle	-7322
▁depths	-7323
▁double	-7324
▁fairly	-7325
▁fought	-7326
▁handed	-7327
▁helped	-7328
▁hyster	-7329
▁laughs	-7330
▁marble	-7331
▁midday	-7332
▁mystic	-7333
▁openly	-7334
▁seamen	-7335
▁smiles	-7336
▁sorrel	-7337
▁throne	-7338
uttering	-7339
▁Grigory	-7340
▁Kirilov	-7341
▁Navagin	-7342
▁Whether	-7343
▁Whoever	-7344
▁Yevgeny	-7345
▁alarmed	-7346
▁bearing	-7347
▁beloved	-7348
▁bottles	-7349
▁brigade	-7350
▁candles	-7351
▁chatter	-7352
▁conform	-7353
▁crosses	-7354
▁ecstasy	-7355
▁fancies	-7356
▁gesture	-7357
▁invalid	-7358
▁landing	-7359
▁lawyers	-7360
▁musical	-7361
▁nursery	-7362
▁patches	-7363
▁retired	-7364
▁sailing	-7365
▁seeming	-7366
▁selling	-7367
▁sounded	-7368
▁stories	-7369
▁tempted	-7370
▁thieves	-7371
▁voyages	-7372
▁washing	-7373
▁Moreover	-7374
▁affected	-7375
▁catching	-7376
▁conflict	-7377
▁desolate	-7378
▁dwelling	-7379
▁evenings	-7380
▁hitherto	-7381
▁holiness	-7382
▁hundreds	-7383
▁ignorant	-7384
▁measured	-7385
▁measures	-7386
▁misunder	-7387
▁quarters	-7388
▁reckoned	-7389
▁sideways	-7390
▁starting	-7391
▁strained	-7392
▁teaching	-7393
▁transfer	-7394
▁wherever	-7395
▁Praskovya	-7396
▁agitation	-7397
▁attracted	-7398
▁centuries	-7399
▁conducted	-7400
▁departure	-7401
▁gratitude	-7402
▁irritably	-7403
▁landscape	-7404
▁mechanics	-7405
▁permanent	-7406
▁precisely	-7407
▁president	-7408
▁prevented	-7409
▁principle	-7410
▁repeating	-7411
▁situation	-7412
▁strongest	-7413
▁artificial	-7414
▁astonished	-7415
▁attractive	-7416
▁breathless	-7417
▁conception	-7418
▁glittering	-7419
▁inevitable	-7420
▁pretending	-7421
▁psychology	-7422
▁triumphant	-7423
▁Nikanoritch	-7424
▁exceptional	-7425
▁instruments	-7426
▁particulars	-7427
▁probability	-7428
▁Additionally	-7429
▁misunderstand	-7430
▁neighbourhood	-7431
▁representation	-7432
.3	-7433
5,	-7434
6,	-7435
Un	-7436
ih	-7437
ko	-7438
rr	-7439
tw	-7440
uv	-7441
EPU	-7442
equ	-7443
oak	-7444
rob	-7445
yrs	-7446
▁(1	-7447
▁Fr	-7448
▁Sk	-7449
▁VI	-7450
----	-7451
Look	-7452
alls	-7453
anim	-7454
ante	-7455
ctic	-7456
emly	-7457
fted	-7458
inks	-7459
onia	-7460
ping	-7461
rows	-7462
when	-7463
▁Rem	-7464
▁Sea	-7465
▁apt	-7466
▁bag	-7467
▁bug	-7468
▁eag	-7469
▁gla	-7470
▁jew	-7471
▁jun	-7472
▁nav	-7473
▁pup	-7474
▁rom	-7475
▁sha	-7476
▁tip	-7477
▁tum	-7478
▁viv	-7479
agers	-7480
ifies	-7481
lands	-7482
otted	-7483
pling	-7484
ugust	-7485
ursed	-7486
▁2022	-7487
▁Cour	-7488
▁Jews	-7489
▁Make	-7490
▁Many	-7491
▁Were	-7492
▁babe	-7493
▁clam	-7494
▁degr	-7495
▁foam	-7496
▁goal	-7497
▁goss	-7498
▁heed	-7499
▁huts	-7500
▁inch	-7501
▁joke	-7502
▁keen	-7503
▁lots	-7504
▁obsc	-7505
▁orch	-7506
▁rare	-7507
▁rosy	-7508
▁scru	-7509
▁silk	-7510
▁spat	-7511
gering	-7512
iating	-7513
icated	-7514
issipp	-7515
ointed	-7516
omfort	-7517
uation	-7518
▁Colon	-7519
▁Count	-7520
▁Going	-7521
▁Press	-7522
▁Sonya	-7523
▁Think	-7524
▁ached	-7525
▁antic	-7526
▁bards	-7527
▁chast	-7528
▁eloqu	-7529
▁frank	-7530
▁gleam	-7531
▁group	-7532
▁guide	-7533
▁humil	-7534
▁knock	-7535
▁labor	-7536
▁likes	-7537
▁maids	-7538
▁mirth	-7539
▁optim	-7540
▁plans	-7541
▁pulse	-7542
▁rings	-7543
▁swing	-7544
▁towns	-7545
▁uncon	-7546
▁vital	-7547
artment	-7548
atforms	-7549
holders	-7550
quisite	-7551
regular	-7552
▁Sunday	-7553
▁United	-7554
▁arrive	-7555
▁assets	-7556
▁bathed	-7557
▁beasts	-7558
▁beings	-7559
▁chorus	-7560
▁closet	-7561
▁copper	-7562
▁devils	-7563
▁dishes	-7564
▁filthy	-7565
▁flames	-7566
▁habits	-7567
▁hoping	-7568
▁inland	-7569
▁losing	-7570
▁marvel	-7571
▁masses	-7572
▁messen	-7573
▁mouths	-7574
▁pacing	-7575
▁pardon	-7576
▁rarely	-7577
▁robust	-7578
▁scared	-7579
▁seldom	-7580
▁sheeps	-7581
▁shroud	-7582
▁sickly	-7583
▁skirts	-7584
▁stable	-7585
▁theirs	-7586
▁themes	-7587
▁unlike	-7588
▁uproar	-7589
▁victim	-7590
▁warmth	-7591
coloured	-7592
hematics	-7593
humoured	-7594
▁achieve	-7595
▁benevol	-7596
▁blanket	-7597
▁central	-7598
▁chamber	-7599
▁charged	-7600
▁created	-7601
▁customs	-7602
▁escaped	-7603
▁feeding	-7604
▁females	-7605
▁gasping	-7606
▁glowing	-7607
▁grounds	-7608
▁hateful	-7609
▁include	-7610
▁infidel	-7611
▁justify	-7612
▁kittens	-7613
▁landown	-7614
▁leaping	-7615
▁leather	-7616
▁lightly	-7617
▁masters	-7618
▁monoton	-7619
▁myriads	-7620
▁offence	-7621
▁porters	-7622
▁pouring	-7623
▁screwed	-7624
▁scrutin	-7625
▁similar	-7626
▁strikes	-7627
▁thereby	-7628
▁weapons	-7629
▁western	-7630
▁Alexandr	-7631
▁abstract	-7632
▁audience	-7633
▁confused	-7634
▁daybreak	-7635
▁deserted	-7636
▁ecstatic	-7637
▁feminine	-7638
▁glancing	-7639
▁heartily	-7640
▁hopeless	-7641
▁nobility	-7642
▁parallel	-7643
▁soothing	-7644
▁unseemly	-7645
▁violence	-7646
▁betrothed	-7647
▁conceived	-7648
▁concerned	-7649
▁dismissed	-7650
▁dominions	-7651
▁fundament	-7652
▁gathering	-7653
▁household	-7654
▁monstrous	-7655
▁naturally	-7656
▁operation	-7657
▁prisoners	-7658
▁repulsion	-7659
▁spreading	-7660
▁stockings	-7661
▁undertake	-7662
▁unwilling	-7663
▁whereupon	-7664
▁Markovitch	-7665
▁Mississipp	-7666
▁Vassilitch	-7667
▁admiration	-7668
▁conclusion	-7669
▁disgusting	-7670
▁experiment	-7671
▁instrument	-7672
▁tenderness	-7673
▁accompanied	-7674
▁examination	-7675
▁measureless	-7676
▁contemptuous	-7677
▁disagreeable	-7678
▁dissatisfied	-7679
▁passionately	-7680
▁conversations	-7681
▁infrastructure	-7682
IT	-7683
▁0	-7684
▁α	-7685
ENT	-7686
add	-7687
auz	-7688
bod	-7689
box	-7690
bro	-7691
cip	-7692
fol	-7693
igr	-7694
nal	-7695
nor	-7696
osm	-7697
ril	-7698
try	-7699
ubl	-7700
uts	-7701
yet	-7702
▁11	-7703
▁Cr	-7704
▁Ro	-7705
▁fu	-7706
▁va	-7707
?...	-7708
Only	-7709
With	-7710
agne	-7711
anty	-7712
bone	-7713
ggna	-7714
irie	-7715
mers	-7716
pass	-7717
phas	-7718
quet	-7719
rise	-7720
stit	-7721
ueen	-7722
umed	-7723
▁Ark	-7724
▁Ret	-7725
▁Ven	-7726
▁cas	-7727
▁dew	-7728
▁hit	-7729
▁ker	-7730
▁pan	-7731
▁sob	-7732
▁sow	-7733
▁ted	-7734
▁typ	-7735
adows	-7736
alled	-7737
auzov	-7738
blest	-7739
eries	-7740
erred	-7741
gered	-7742
groom	-7743
heres	-7744
icity	-7745
inity	-7746
irmed	-7747
isons	-7748
ldbru	-7749
omple	-7750
oning	-7751
pable	-7752
thern	-7753
woman	-7754
▁2018	-7755
▁Finn	-7756
▁Know	-7757
▁Osip	-7758
▁Year	-7759
▁acts	-7760
▁belt	-7761
▁borr	-7762
▁caps	-7763
▁cass	-7764
▁crum	-7765
▁flee	-7766
▁gods	-7767
▁harp	-7768
▁lads	-7769
▁lazy	-7770
▁lend	-7771
▁melt	-7772
▁muff	-7773
▁numb	-7774
▁parl	-7775
▁pert	-7776
▁pist	-7777
▁poem	-7778
▁prey	-7779
▁puzz	-7780
▁rays	-7781
▁rend	-7782
▁sack	-7783
▁saus	-7784
▁toil	-7785
▁tram	-7786
▁trib	-7787
▁turb	-7788
▁vest	-7789
arenka	-7790
cation	-7791
formed	-7792
ggnagg	-7793
gorith	-7794
houses	-7795
icable	-7796
ippers	-7797
isible	-7798
itudes	-7799
ocracy	-7800
ristan	-7801
umanok	-7802
zelkov	-7803
▁Jesus	-7804
▁Mikol	-7805
▁Scene	-7806
▁Spain	-7807
▁bliss	-7808
▁breed	-7809
▁caval	-7810
▁circl	-7811
▁crept	-7812
▁curly	-7813
▁durst	-7814
▁enlar	-7815
▁filth	-7816
▁gifts	-7817
▁logic	-7818
▁multi	-7819
▁penal	-7820
▁pines	-7821
▁plump	-7822
▁plung	-7823
▁recom	-7824
▁repay	-7825
▁rises	-7826
▁rules	-7827
▁sands	-7828
▁sexes	-7829
▁staff	-7830
▁stain	-7831
▁thief	-7832
▁unacc	-7833
▁veget	-7834
▁wheel	-7835
certain	-7836
iringly	-7837
lyauzov	-7838
ocratic	-7839
ography	-7840
outhern	-7841
urivers	-7842
▁Enough	-7843
▁Libert	-7844
▁Surely	-7845
▁Within	-7846
▁apples	-7847
▁awhile	-7848
▁bigger	-7849
▁bowing	-7850
▁burial	-7851
▁candid	-7852
▁claims	-7853
▁closer	-7854
▁collar	-7855
▁critic	-7856
▁cursed	-7857
▁deemed	-7858
▁deeply	-7859
▁elbows	-7860
▁emphas	-7861
▁exclam	-7862
▁famous	-7863
▁gained	-7864
▁gossip	-7865
▁hinder	-7866
▁horrid	-7867
▁invite	-7868
▁jacket	-7869
▁joyous	-7870
▁morose	-7871
▁obtain	-7872
▁origin	-7873
▁overst	-7874
▁polite	-7875
▁proved	-7876
▁resour	-7877
▁screen	-7878
▁seated	-7879
▁shaped	-7880
▁shrine	-7881
▁states	-7882
▁storms	-7883
▁subtle	-7884
▁unjust	-7885
▁waking	-7886
▁Because	-7887
▁Colonel	-7888
▁Varenka	-7889
▁academy	-7890
▁barking	-7891
▁cassock	-7892
▁clasped	-7893
▁deliver	-7894
▁details	-7895
▁envelop	-7896
▁exagger	-7897
▁filling	-7898
▁forming	-7899
▁gateway	-7900
▁guessed	-7901
▁leaning	-7902
▁mutters	-7903
▁nowhere	-7904
▁overall	-7905
▁panting	-7906
▁readily	-7907
▁removed	-7908
▁sincere	-7909
▁slender	-7910
▁succeed	-7911
▁theatre	-7912
▁trumpet	-7913
▁wailing	-7914
astically	-7915
▁Luggnagg	-7916
▁Mishenka	-7917
▁Paumanok	-7918
▁absolute	-7919
▁benefact	-7920
▁brightly	-7921
▁clearing	-7922
▁composed	-7923
▁converse	-7924
▁elements	-7925
▁emerging	-7926
▁feminist	-7927
▁findings	-7928
▁goloshes	-7929
▁heavenly	-7930
▁lighting	-7931
▁majestic	-7932
▁menacing	-7933
▁merciful	-7934
▁mischief	-7935
▁monument	-7936
▁pondered	-7937
▁sciences	-7938
▁steadily	-7939
▁stepping	-7940
▁suggests	-7941
▁tenderly	-7942
▁thrashed	-7943
▁whenever	-7944
▁whirling	-7945
▁whispers	-7946
▁wondrous	-7947
▁Yegoritch	-7948
▁adventure	-7949
▁answering	-7950
▁architect	-7951
▁commander	-7952
▁depressed	-7953
▁execution	-7954
▁impatient	-7955
▁indicates	-7956
▁inspector	-7957
▁irregular	-7958
▁limitless	-7959
▁meanwhile	-7960
▁potential	-7961
▁resulting	-7962
▁sacristan	-7963
▁shrugging	-7964
▁University	-7965
▁cautiously	-7966
▁completion	-7967
▁conjecture	-7968
▁contribute	-7969
▁describing	-7970
▁maintained	-7971
▁misfortune	-7972
▁oppressive	-7973
▁punishment	-7974
▁sufferings	-7975
▁techniques	-7976
▁Mississippi	-7977
▁convictions	-7978
▁expressions	-7979
▁incessantly	-7980
▁consequently	-7981
▁stakeholders	-7982
▁Vassilyevitch	-7983
▁acquaintances	-7984
▁determination	-7985
▁administration	-7986
▁contemptuously	-7987
1.	-7988
80	-7989
ID	-7990
ax	-7991
4).	-7992
Bec	-7993
arn	-7994
byt	-7995
ggy	-7996
har	-7997
leg	-7998
oft	-7999
oil	-8000
oks	-8001
xen	-8002
yaz	-8003
ario	-8004
azar	-8005
etch	-8006
ohin	-8007
oked	-8008
oven	-8009
reen	-8010
sieu	-8011
tree	-8012
▁Beh	-8013
▁Mur	-8014
▁Nap	-8015
▁Rep	-8016
▁Res	-8017
▁Skv	-8018
▁ath	-8019
▁bef	-8020
▁cuc	-8021
▁ded	-8022
▁fri	-8023
▁kne	-8024
▁lit	-8025
▁nin	-8026
apers	-8027
bytko	-8028
cript	-8029
enses	-8030
inisc	-8031
lyaev	-8032
matic	-8033
mount	-8034
ousin	-8035
pherd	-8036
rates	-8037
reath	-8038
ulent	-8039
▁Dear	-8040
▁East	-8041
▁Fort	-8042
▁Full	-8043
▁John	-8044
▁Mart	-8045
▁Span	-8046
▁Stri	-8047
▁Vyaz	-8048
▁beam	-8049
▁bows	-8050
▁card	-8051
▁cave	-8052
▁coal	-8053
▁foes	-8054
▁mate	-8055
▁pros	-8056
▁suns	-8057
▁symb	-8058
▁tops	-8059
▁woes	-8060
ainted	-8061
blance	-8062
erably	-8063
ortsov	-8064
porary	-8065
school	-8066
tyagin	-8067
▁Beaut	-8068
▁Dutch	-8069
▁Petya	-8070
▁altar	-8071
▁bears	-8072
▁canoe	-8073
▁fairy	-8074
▁feast	-8075
▁finds	-8076
▁flows	-8077
▁hymns	-8078
▁ikons	-8079
▁memor	-8080
▁merit	-8081
▁owner	-8082
▁parad	-8083
▁penet	-8084
▁petty	-8085
▁pitch	-8086
▁reass	-8087
▁saint	-8088
▁stops	-8089
▁tales	-8090
▁tells	-8091
▁tooth	-8092
▁tread	-8093
▁wheat	-8094
Because	-8095
chnical	-8096
inarily	-8097
▁Govern	-8098
▁Indeed	-8099
▁Modest	-8100
▁Please	-8101
▁Virgin	-8102
▁absent	-8103
▁actual	-8104
▁assume	-8105
▁avenue	-8106
▁banner	-8107
▁boldly	-8108
▁brandy	-8109
▁chaste	-8110
▁choked	-8111
▁column	-8112
▁detest	-8113
▁dreary	-8114
▁drowsy	-8115
▁feared	-8116
▁grande	-8117
▁lodger	-8118
▁lonely	-8119
▁motive	-8120
▁paused	-8121
▁plains	-8122
▁portra	-8123
▁potent	-8124
▁purple	-8125
▁rustle	-8126
▁tables	-8127
▁visits	-8128
▁waggon	-8129
▁wildly	-8130
▁Belyaev	-8131
▁Process	-8132
▁Putohin	-8133
▁Shelest	-8134
▁Towards	-8135
▁Varvara	-8136
▁Welcome	-8137
▁accompl	-8138
▁agonies	-8139
▁anticip	-8140
▁aspects	-8141
▁battles	-8142
▁belongs	-8143
▁closely	-8144
▁contrad	-8145
▁corners	-8146
▁coughed	-8147
▁counsel	-8148
▁dataset	-8149
▁deceive	-8150
▁declare	-8151
▁desires	-8152
▁disdain	-8153
▁growled	-8154
▁heaving	-8155
▁humming	-8156
▁inquiry	-8157
▁medical	-8158
▁natives	-8159
▁oneself	-8160
▁pitiful	-8161
▁protect	-8162
▁rushing	-8163
▁schools	-8164
▁strateg	-8165
▁tedious	-8166
▁whistle	-8167
▁yawning	-8168
▁Klyauzov	-8169
▁Libertad	-8170
▁arranged	-8171
▁astronom	-8172
▁blinking	-8173
▁breathed	-8174
▁convicts	-8175
▁drooping	-8176
▁exercise	-8177
▁farewell	-8178
▁insisted	-8179
▁ironical	-8180
▁kerchief	-8181
▁occurred	-8182
▁particip	-8183
▁realised	-8184
▁relieved	-8185
▁reproach	-8186
▁sticking	-8187
▁strictly	-8188
▁striking	-8189
▁students	-8190
▁swimming	-8191
▁tortured	-8192
▁youthful	-8193
▁Lubotchka	-8194
▁Podtyagin	-8195
▁Shtchukin	-8196
▁Skvortsov	-8197
▁acknowled	-8198
▁agonizing	-8199
▁arguments	-8200
▁available	-8201
▁champagne	-8202
▁corporate	-8203
▁criminals	-8204
▁descended	-8205
▁dignified	-8206
▁fragrance	-8207
▁freshness	-8208
▁imploring	-8209
▁irritable	-8210
▁nervously	-8211
▁newspaper	-8212
▁recession	-8213
▁recollect	-8214
▁reduction	-8215
▁screaming	-8216
▁sheepskin	-8217
▁sorrowful	-8218
▁suggested	-8219
▁whistling	-8220
▁excellency	-8221
▁neighbours	-8222
▁permission	-8223
▁recognized	-8224
▁resolution	-8225
▁travelling	-8226
▁comfortable	-8227
▁computation	-8228
▁theoretical	-8229
▁accidentally	-8230
▁circumstance	-8231
▁embarrassment	-8232
▁extraordinarily	-8233
16	-8234
2)	-8235
AD	-8236
AG	-8237
Am	-8238
Ch	-8239
PC	-8240
ez	-8241
fr	-8242
▁ˆ	-8243
3).	-8244
Ach	-8245
bel	-8246
dog	-8247
ila	-8248
ixt	-8249
onn	-8250
rah	-8251
▁12	-8252
▁OF	-8253
▁TO	-8254
▁Up	-8255
▁oh	-8256
▁ze	-8257
Lord	-8258
arks	-8259
cast	-8260
ergy	-8261
esce	-8262
ills	-8263
lies	-8264
ream	-8265
rier	-8266
uded	-8267
umov	-8268
umsy	-8269
wind	-8270
your	-8271
▁Ach	-8272
▁Fla	-8273
▁Ill	-8274
▁Kan	-8275
▁Koz	-8276
▁Lie	-8277
▁Nat	-8278
▁bee	-8279
▁doc	-8280
▁eel	-8281
▁gri	-8282
▁ink	-8283
▁lun	-8284
▁nim	-8285
▁odd	-8286
▁rig	-8287
▁rud	-8288
▁saf	-8289
▁unm	-8290
▁vel	-8291
athom	-8292
chair	-8293
indly	-8294
llous	-8295
month	-8296
nable	-8297
ooked	-8298
ships	-8299
uated	-8300
▁(200	-8301
▁Data	-8302
▁Less	-8303
▁Most	-8304
▁Prob	-8305
▁Sing	-8306
▁bard	-8307
▁bars	-8308
▁bush	-8309
▁cate	-8310
▁cruc	-8311
▁date	-8312
▁dish	-8313
▁doth	-8314
▁drag	-8315
▁enqu	-8316
▁evol	-8317
▁flex	-8318
▁gale	-8319
▁init	-8320
▁loos	-8321
▁medi	-8322
▁moss	-8323
▁nail	-8324
▁noon	-8325
▁odor	-8326
▁pace	-8327
▁paws	-8328
▁rows	-8329
▁snug	-8330
▁subl	-8331
▁unne	-8332
Mother	-8333
ateful	-8334
intell	-8335
itched	-8336
orting	-8337
rences	-8338
usions	-8339
▁Above	-8340
▁Glory	-8341
▁Latin	-8342
▁Satur	-8343
▁beams	-8344
▁beque	-8345
▁burnt	-8346
▁chimn	-8347
▁cliff	-8348
▁climb	-8349
▁decre	-8350
▁embed	-8351
▁faded	-8352
▁fires	-8353
▁flock	-8354
▁gross	-8355
▁locks	-8356
▁nails	-8357
▁outra	-8358
▁plent	-8359
▁potat	-8360
▁retro	-8361
▁roses	-8362
▁shone	-8363
▁swoll	-8364
▁swore	-8365
▁tides	-8366
▁volat	-8367
conomic	-8368
iations	-8369
iciency	-8370
ignific	-8371
▁Childe	-8372
▁aching	-8373
▁adjust	-8374
▁biting	-8375
▁bundle	-8376
▁caused	-8377
▁choice	-8378
▁clumsy	-8379
▁commit	-8380
▁deadly	-8381
▁driver	-8382
▁eldest	-8383
▁enable	-8384
▁fisher	-8385
▁harmon	-8386
▁impass	-8387
▁insuff	-8388
▁intend	-8389
▁joking	-8390
▁lament	-8391
▁lashed	-8392
▁lowest	-8393
▁malice	-8394
▁missed	-8395
▁moaned	-8396
▁murmur	-8397
▁naught	-8398
▁paying	-8399
▁phrase	-8400
▁plaint	-8401
▁provin	-8402
▁resent	-8403
▁resign	-8404
▁robbed	-8405
▁serene	-8406
▁solely	-8407
▁source	-8408
▁stolen	-8409
▁stroke	-8410
▁weapon	-8411
▁writes	-8412
ications	-8413
▁Ilyitch	-8414
▁Lobytko	-8415
▁Mikolka	-8416
▁Natalya	-8417
▁Uzelkov	-8418
▁apprehe	-8419
▁bigness	-8420
▁cabinet	-8421
▁categor	-8422
▁century	-8423
▁commiss	-8424
▁corpses	-8425
▁crucial	-8426
▁deserve	-8427
▁designs	-8428
▁destiny	-8429
▁disconc	-8430
▁economy	-8431
▁elegant	-8432
▁enchant	-8433
▁incense	-8434
▁journal	-8435
▁jumping	-8436
▁leagues	-8437
▁limited	-8438
▁neglect	-8439
▁outward	-8440
▁percept	-8441
▁perfume	-8442
▁quantum	-8443
▁robbers	-8444
▁section	-8445
▁sixteen	-8446
▁springs	-8447
▁stealth	-8448
▁tearful	-8449
▁tempest	-8450
▁thither	-8451
▁wanting	-8452
▁warlike	-8453
▁wonders	-8454
struldbru	-8455
▁Fedyukov	-8456
▁Mashenka	-8457
▁accounts	-8458
▁algorith	-8459
▁charming	-8460
▁contains	-8461
▁entering	-8462
▁external	-8463
▁gloomily	-8464
▁holidays	-8465
▁instinct	-8466
▁invented	-8467
▁mistakes	-8468
▁munching	-8469
▁opinions	-8470
▁persuade	-8471
▁poisoned	-8472
▁prudence	-8473
▁reaction	-8474
▁realized	-8475
▁reminded	-8476
▁reminisc	-8477
▁scholars	-8478
▁shameful	-8479
▁solution	-8480
▁teachers	-8481
▁tracking	-8482
▁unnecess	-8483
▁withdraw	-8484
▁agonising	-8485
▁announced	-8486
▁brilliant	-8487
▁concealed	-8488
▁decisions	-8489
▁everybody	-8490
▁greatcoat	-8491
▁happening	-8492
▁implement	-8493
▁offensive	-8494
▁prolonged	-8495
▁protested	-8496
▁respected	-8497
▁scratched	-8498
▁searching	-8499
▁shameless	-8500
▁sincerely	-8501
▁technical	-8502
▁Nikolashka	-8503
▁celebrated	-8504
▁continuous	-8505
▁favourable	-8506
▁governance	-8507
▁incredible	-8508
▁marvellous	-8509
▁monotonous	-8510
▁principles	-8511
▁reputation	-8512
▁separation	-8513
▁thoughtful	-8514
▁underlying	-8515
▁comfortably	-8516
▁confinement	-8517
▁established	-8518
▁illustrious	-8519
▁possibility	-8520
▁predictions	-8521
▁proposition	-8522
▁reflections	-8523
▁simulations	-8524
▁surrounding	-8525
▁instructions	-8526
▁neighbouring	-8527
▁unexpectedly	-8528
3)	-8529
CT	-8530
Qu	-8531
Re	-8532
TE	-8533
TR	-8534
Wh	-8535
bi	-8536
cé	-8537
vy	-8538
▁∈	-8539
5).	-8540
ART	-8541
EEE	-8542
Hey	-8543
Tis	-8544
alm	-8545
fre	-8546
igs	-8547
ika	-8548
isk	-8549
nov	-8550
pel	-8551
ths	-8552
too	-8553
uis	-8554
why	-8555
▁Bo	-8556
▁Ev	-8557
Just	-8558
arts	-8559
ason	-8560
cipl	-8561
days	-8562
gard	-8563
itar	-8564
mill	-8565
oors	-8566
open	-8567
osto	-8568
rete	-8569
were	-8570
wood	-8571
▁Bey	-8572
▁Div	-8573
▁Luk	-8574
▁Med	-8575
▁Pav	-8576
▁Sim	-8577
▁Sub	-8578
▁Tat	-8579
▁awe	-8580
▁eve	-8581
▁fid	-8582
▁oak	-8583
▁ray	-8584
▁ske	-8585
▁tax	-8586
▁tun	-8587
▁yon	-8588
After	-8589
Thank	-8590
affin	-8591
akers	-8592
amant	-8593
arded	-8594
class	-8595
hatta	-8596
iancé	-8597
ishly	-8598
liked	-8599
nants	-8600
ondon	-8601
rings	-8602
roved	-8603
uding	-8604
▁2020	-8605
▁Amid	-8606
▁Brit	-8607
▁Hark	-8608
▁High	-8609
▁IEEE	-8610
▁Kiry	-8611
▁Neva	-8612
▁PART	-8613
▁ampl	-8614
▁aren	-8615
▁bald	-8616
▁bits	-8617
▁blew	-8618
▁bowl	-8619
▁core	-8620
▁cree	-8621
▁dirt	-8622
▁dome	-8623
▁doom	-8624
▁fulf	-8625
▁gran	-8626
▁herd	-8627
▁hues	-8628
▁libr	-8629
▁matt	-8630
▁nigh	-8631
▁refu	-8632
▁shan	-8633
▁thir	-8634
▁vall	-8635
▁vary	-8636
▁vist	-8637
▁warn	-8638
acious	-8639
akable	-8640
alling	-8641
chants	-8642
elling	-8643
ensity	-8644
everal	-8645
igible	-8646
ryakov	-8647
▁Court	-8648
▁Danil	-8649
▁Great	-8650
▁India	-8651
▁Manna	-8652
▁Mitka	-8653
▁Queen	-8654
▁Space	-8655
▁armed	-8656
▁besee	-8657
▁brush	-8658
▁coats	-8659
▁counc	-8660
▁crust	-8661
▁curse	-8662
▁dimin	-8663
▁dwelt	-8664
▁focus	-8665
▁folks	-8666
▁folly	-8667
▁incon	-8668
▁jeune	-8669
▁lakes	-8670
▁laure	-8671
▁louse	-8672
▁mayor	-8673
▁moons	-8674
▁named	-8675
▁opens	-8676
▁paced	-8677
▁skins	-8678
▁tents	-8679
▁tramp	-8680
▁weave	-8681
▁weeds	-8682
▁wrung	-8683
ensions	-8684
orgeous	-8685
▁Alyona	-8686
▁Beyond	-8687
▁Greece	-8688
▁Making	-8689
▁Napole	-8690
▁admire	-8691
▁allows	-8692
▁beamed	-8693
▁bounds	-8694
▁breeze	-8695
▁buying	-8696
▁camera	-8697
▁colors	-8698
▁disapp	-8699
▁dispos	-8700
▁domain	-8701
▁doubts	-8702
▁esteem	-8703
▁exists	-8704
▁frivol	-8705
▁gallop	-8706
▁ghosts	-8707
▁granny	-8708
▁gravey	-8709
▁instit	-8710
▁latest	-8711
▁madman	-8712
▁mental	-8713
▁morbid	-8714
▁orphan	-8715
▁paltry	-8716
▁plants	-8717
▁pledge	-8718
▁record	-8719
▁relish	-8720
▁resear	-8721
▁resume	-8722
▁riches	-8723
▁riding	-8724
▁rights	-8725
▁roared	-8726
▁safety	-8727
▁sailor	-8728
▁scales	-8729
▁scheme	-8730
▁scythe	-8731
▁season	-8732
▁serves	-8733
▁severe	-8734
▁shakes	-8735
▁sights	-8736
▁sinful	-8737
▁soothe	-8738
▁stench	-8739
▁summon	-8740
▁throng	-8741
▁timber	-8742
▁turkey	-8743
▁twitch	-8744
▁unbear	-8745
▁vacant	-8746
▁vainly	-8747
▁wounds	-8748
▁yawned	-8749
aneously	-8750
ensively	-8751
entlemen	-8752
fortunes	-8753
stricken	-8754
▁Lukitch	-8755
▁Science	-8756
▁Several	-8757
▁Shapkin	-8758
▁ability	-8759
▁audible	-8760
▁blessed	-8761
▁clearer	-8762
▁closing	-8763
▁contend	-8764
▁culture	-8765
▁dispute	-8766
▁earlier	-8767
▁empires	-8768
▁enjoyed	-8769
▁extract	-8770
▁frantic	-8771
▁gallery	-8772
▁haunted	-8773
▁indoors	-8774
▁license	-8775
▁message	-8776
▁moaning	-8777
▁obvious	-8778
▁operate	-8779
▁partial	-8780
▁payment	-8781
▁phantom	-8782
▁plunged	-8783
▁premier	-8784
▁prepare	-8785
▁prosper	-8786
▁stamped	-8787
▁stroked	-8788
▁surgeon	-8789
▁threads	-8790
▁tremble	-8791
▁unclean	-8792
▁warning	-8793
▁winding	-8794
cientific	-8795
ibilities	-8796
▁acquired	-8797
▁arrested	-8798
▁assented	-8799
▁backward	-8800
▁bedstead	-8801
▁bleeding	-8802
▁brooding	-8803
▁careless	-8804
▁comprehe	-8805
▁condesce	-8806
▁contempl	-8807
▁counting	-8808
▁crowding	-8809
▁dazzling	-8810
▁disliked	-8811
▁dynamics	-8812
▁eidolons	-8813
▁everlast	-8814
▁existing	-8815
▁flapping	-8816
▁frighten	-8817
▁inferior	-8818
▁insights	-8819
▁marching	-8820
▁morality	-8821
▁policies	-8822
▁relative	-8823
▁rustling	-8824
▁secondly	-8825
▁security	-8826
▁shepherd	-8827
▁smallest	-8828
▁sounding	-8829
▁spending	-8830
▁spiteful	-8831
▁stirring	-8832
▁swinging	-8833
▁yearning	-8834
▁Democracy	-8835
▁Shelestov	-8836
▁apprehens	-8837
▁ascending	-8838
▁caressing	-8839
▁contrived	-8840
▁curiously	-8841
▁destroyed	-8842
▁earnestly	-8843
▁entreated	-8844
▁exquisite	-8845
▁forbidden	-8846
▁furiously	-8847
▁highlight	-8848
▁interests	-8849
▁intervals	-8850
▁justified	-8851
▁messenger	-8852
▁permitted	-8853
▁plurivers	-8854
▁prevailed	-8855
▁sacrifice	-8856
▁shuddered	-8857
▁sparkling	-8858
▁staggered	-8859
▁stupidity	-8860
▁supposing	-8861
▁sweetness	-8862
▁throbbing	-8863
▁unaccount	-8864
▁Mannahatta	-8865
▁background	-8866
▁consistent	-8867
▁contradict	-8868
▁delightful	-8869
▁increasing	-8870
▁perfection	-8871
▁politeness	-8872
▁provisions	-8873
▁reasonable	-8874
▁sensations	-8875
▁staggering	-8876
▁yourselves	-8877
▁articulated	-8878
▁authorities	-8879
▁experienced	-8880
▁fundamental	-8881
▁impatiently	-8882
▁recognition	-8883
▁understands	-8884
▁congratulate	-8885
▁disconcerted	-8886
▁perspiration	-8887
.5	-8888
97	-8889
Br	-8890
DP	-8891
GC	-8892
Ha	-8893
lo	-8894
▁,	-8895
Sit	-8896
_.”	-8897
lab	-8898
lad	-8899
oos	-8900
pri	-8901
ris	-8902
sem	-8903
thm	-8904
▁1,	-8905
▁14	-8906
▁16	-8907
▁GU	-8908
▁Gu	-8909
▁Rh	-8910
▁bi	-8911
Hush	-8912
Ivan	-8913
cest	-8914
fact	-8915
isms	-8916
izes	-8917
lets	-8918
olds	-8919
omat	-8920
orns	-8921
orse	-8922
otic	-8923
ovka	-8924
rite	-8925
shot	-8926
soev	-8927
thou	-8928
tons	-8929
weet	-8930
xter	-8931
yram	-8932
▁Art	-8933
▁Dep	-8934
▁Law	-8935
▁Nad	-8936
▁Off	-8937
▁Ple	-8938
▁Pot	-8939
▁Sig	-8940
▁Sun	-8941
▁VII	-8942
▁aid	-8943
▁bid	-8944
▁ena	-8945
▁jer	-8946
▁lag	-8947
▁orn	-8948
▁ree	-8949
▁rif	-8950
▁ung	-8951
amond	-8952
arios	-8953
arves	-8954
athed	-8955
avkin	-8956
beams	-8957
child	-8958
culty	-8959
gthen	-8960
ician	-8961
inder	-8962
ineev	-8963
insky	-8964
pired	-8965
roads	-8966
rooms	-8967
table	-8968
ulses	-8969
white	-8970
▁Away	-8971
▁Demy	-8972
▁Fare	-8973
▁Fyok	-8974
▁Hope	-8975
▁Muse	-8976
▁Near	-8977
▁Poly	-8978
▁Prov	-8979
▁Very	-8980
▁Vict	-8981
▁beak	-8982
▁beck	-8983
▁beef	-8984
▁bees	-8985
▁begg	-8986
▁cert	-8987
▁clen	-8988
▁conj	-8989
▁cows	-8990
▁crow	-8991
▁cubs	-8992
▁dost	-8993
▁gait	-8994
▁haul	-8995
▁howl	-8996
▁hush	-8997
▁lank	-8998
▁pail	-8999
▁palm	-9000
▁recl	-9001
▁rubb	-9002
▁sage	-9003
▁sock	-9004
▁sore	-9005
▁tray	-9006
▁unce	-9007
▁veil	-9008
▁volu	-9009
▁wail	-9010
▁zeal	-9011
aments	-9012
ampoun	-9013
aperna	-9014
chance	-9015
cludes	-9016
illery	-9017
issors	-9018
ledges	-9019
makers	-9020
ouring	-9021
piring	-9022
rating	-9023
udging	-9024
ussian	-9025
ysters	-9026
▁(2021	-9027
▁About	-9028
▁Along	-9029
▁Hence	-9030
▁Peace	-9031
▁accur	-9032
▁acted	-9033
▁basis	-9034
▁belly	-9035
▁color	-9036
▁cooks	-9037
▁crest	-9038
▁decay	-9039
▁depra	-9040
▁dimly	-9041
▁dried	-9042
▁drift	-9043
▁event	-9044
▁flour	-9045
▁fluid	-9046
▁funny	-9047
▁heaps	-9048
▁hotly	-9049
▁inner	-9050
▁labou	-9051
▁moist	-9052
▁pluck	-9053
▁posts	-9054
▁reign	-9055
▁revel	-9056
▁reven	-9057
▁rolls	-9058
▁seeds	-9059
▁shell	-9060
▁smack	-9061
▁stale	-9062
▁stiff	-9063
▁stray	-9064
▁stung	-9065
▁velve	-9066
▁vices	-9067
▁villa	-9068
▁whirl	-9069
allying	-9070
berries	-9071
fashion	-9072
forward	-9073
igation	-9074
inction	-9075
ologist	-9076
ouraged	-9077
ourning	-9078
whether	-9079
▁Accord	-9080
▁Always	-9081
▁London	-9082
▁Lyubov	-9083
▁Spirit	-9084
▁Sysoev	-9085
▁Vassya	-9086
▁Vyazma	-9087
▁absorb	-9088
▁annual	-9089
▁attrib	-9090
▁courty	-9091
▁cousin	-9092
▁cultiv	-9093
▁deeper	-9094
▁dexter	-9095
▁drinks	-9096
▁energy	-9097
▁extent	-9098
▁factor	-9099
▁floors	-9100
▁gloves	-9101
▁hasten	-9102
▁howled	-9103
▁indire	-9104
▁infall	-9105
▁mirror	-9106
▁orator	-9107
▁plague	-9108
▁pupils	-9109
▁reconc	-9110
▁render	-9111
▁repent	-9112
▁robber	-9113
▁sector	-9114
▁select	-9115
▁shiver	-9116
▁simult	-9117
▁smoked	-9118
▁tapped	-9119
▁trades	-9120
▁wagged	-9121
▁wished	-9122
ertainly	-9123
istening	-9124
▁Ahineev	-9125
▁Instead	-9126
▁Pushkin	-9127
▁Strange	-9128
▁accused	-9129
▁adamant	-9130
▁airline	-9131
▁caution	-9132
▁censure	-9133
▁confron	-9134
▁constra	-9135
▁conveni	-9136
▁degener	-9137
▁diamond	-9138
▁dislike	-9139
▁emptied	-9140
▁faculty	-9141
▁furnish	-9142
▁glimpse	-9143
▁harvest	-9144
▁hunting	-9145
▁madness	-9146
▁markets	-9147
▁mortals	-9148
▁motives	-9149
▁muffled	-9150
▁offices	-9151
▁pennant	-9152
▁picking	-9153
▁portfol	-9154
▁propose	-9155
▁recover	-9156
▁refrain	-9157
▁remembr	-9158
▁resting	-9159
▁sausage	-9160
▁sobbing	-9161
▁sources	-9162
▁stately	-9163
▁submiss	-9164
▁swallow	-9165
▁swollen	-9166
▁tightly	-9167
▁traitor	-9168
▁trifles	-9169
▁vividly	-9170
▁wharves	-9171
▁willing	-9172
▁writers	-9173
▁yielded	-9174
abilities	-9175
ashington	-9176
sequently	-9177
technical	-9178
▁Champoun	-9179
▁Kiryakov	-9180
▁activity	-9181
▁addition	-9182
▁airlines	-9183
▁appropri	-9184
▁arriving	-9185
▁blossoms	-9186
▁breeches	-9187
▁cautious	-9188
▁clinging	-9189
▁collabor	-9190
▁dejected	-9191
▁designed	-9192
▁enjoying	-9193
▁examples	-9194
▁foremost	-9195
▁forenoon	-9196
▁fortunes	-9197
▁fountain	-9198
▁interpre	-9199
▁irresist	-9200
▁occupied	-9201
▁paraffin	-9202
▁problems	-9203
▁recovery	-9204
▁rejected	-9205
▁relevant	-9206
▁scissors	-9207
▁shrieked	-9208
▁swelling	-9209
▁vigorous	-9210
▁youngest	-9211
apernaumov	-9212
rehensible	-9213
▁Processes	-9214
▁affecting	-9215
▁apartment	-9216
▁consented	-9217
▁downwards	-9218
▁empirical	-9219
▁falsehood	-9220
▁fragments	-9221
▁furnished	-9222
▁impassive	-9223
▁impressed	-9224
▁indignant	-9225
▁investors	-9226
▁multiplic	-9227
▁murderers	-9228
▁persuaded	-9229
▁professor	-9230
▁published	-9231
▁scenarios	-9232
▁shattered	-9233
▁sleepless	-9234
▁suspected	-9235
▁uncomfort	-9236
▁bewildered	-9237
▁complexion	-9238
▁conformity	-9239
▁convention	-9240
▁corruption	-9241
▁distressed	-9242
▁employment	-9243
▁estimation	-9244
▁explaining	-9245
▁flickering	-9246
▁graciously	-9247
▁insignific	-9248
▁lieutenant	-9249
▁personally	-9250
▁prediction	-9251
▁quarrelled	-9252
▁retrospect	-9253
▁schoolboys	-9254
▁Furthermore	-9255
▁differently	-9256
▁inquiringly	-9257
▁misfortunes	-9258
▁researchers	-9259
▁unnecessary	-9260
▁deliberately	-9261
▁difficulties	-9262
▁perspectives	-9263
▁indifferently	-9264
▁opportunities	-9265
▁unaccountable	-9266
▁characteristic	-9267
4)	-9268
7,	-9269
Pr	-9270
bu	-9271
oR	-9272
sw	-9273
▁{	-9274
▁β	-9275
▁−	-9276
.--	-9277
ING	-9278
ais	-9279
any	-9280
eep	-9281
hic	-9282
hol	-9283
ige	-9284
irs	-9285
lig	-9286
occ	-9287
pid	-9288
psy	-9289
pul	-9290
rin	-9291
sha	-9292
top	-9293
urk	-9294
▁.'	-9295
▁Ac	-9296
▁El	-9297
▁Ep	-9298
▁Ma	-9299
▁Vo	-9300
▁iv	-9301
Stay	-9302
Stop	-9303
Wait	-9304
anov	-9305
anqu	-9306
dued	-9307
educ	-9308
ette	-9309
from	-9310
gone	-9311
ihil	-9312
ingy	-9313
iors	-9314
lars	-9315
lers	-9316
lock	-9317
mber	-9318
odes	-9319
pock	-9320
rine	-9321
rops	-9322
rose	-9323
unts	-9324
▁Bab	-9325
▁Bal	-9326
▁Big	-9327
▁Hel	-9328
▁MPC	-9329
▁Pal	-9330
▁Saw	-9331
▁Ten	-9332
▁Tra	-9333
▁arb	-9334
▁ard	-9335
▁baw	-9336
▁bub	-9337
▁dia	-9338
▁ecl	-9339
▁fow	-9340
▁fox	-9341
▁gas	-9342
▁gna	-9343
▁hem	-9344
▁joc	-9345
▁ped	-9346
▁pir	-9347
▁sme	-9348
▁stu	-9349
▁sup	-9350
▁tin	-9351
▁web	-9352
Pyotr	-9353
ammed	-9354
anter	-9355
chest	-9356
cloth	-9357
cough	-9358
ients	-9359
inked	-9360
ipper	-9361
scale	-9362
stems	-9363
toned	-9364
▁Conf	-9365
▁Foll	-9366
▁Nove	-9367
▁Ohio	-9368
▁Prop	-9369
▁Stay	-9370
▁Tues	-9371
▁UDTs	-9372
▁aims	-9373
▁alas	-9374
▁bind	-9375
▁bone	-9376
▁copy	-9377
▁eats	-9378
▁fled	-9379
▁gang	-9380
▁gird	-9381
▁glee	-9382
▁hemp	-9383
▁hers	-9384
▁lamb	-9385
▁lent	-9386
▁musk	-9387
▁phot	-9388
▁pink	-9389
▁plac	-9390
▁push	-9391
▁ratt	-9392
▁rehe	-9393
▁rode	-9394
▁scow	-9395
▁sine	-9396
▁subs	-9397
▁ting	-9398
▁tire	-9399
▁unhe	-9400
▁util	-9401
aneous	-9402
arance	-9403
broker	-9404
coming	-9405
cribed	-9406
estion	-9407
laimed	-9408
mering	-9409
people	-9410
ptions	-9411
ulture	-9412
worthy	-9413
yavkin	-9414
▁Afric	-9415
▁Broad	-9416
▁Cross	-9417
▁Dosto	-9418
▁Journ	-9419
▁Quite	-9420
▁Sting	-9421
▁White	-9422
▁aimed	-9423
▁appla	-9424
▁arrow	-9425
▁beads	-9426
▁billi	-9427
▁blast	-9428
▁brook	-9429
▁cable	-9430
▁campa	-9431
▁cigar	-9432
▁clues	-9433
▁craft	-9434
▁creek	-9435
▁disgu	-9436
▁dwarf	-9437
▁edges	-9438
▁embod	-9439
▁folds	-9440
▁forge	-9441
▁haply	-9442
▁ideal	-9443
▁ingen	-9444
▁joint	-9445
▁marin	-9446
▁mates	-9447
▁meals	-9448
▁mines	-9449
▁misty	-9450
▁modes	-9451
▁muddy	-9452
▁negro	-9453
▁noose	-9454
▁paras	-9455
▁porch	-9456
▁progr	-9457
▁rever	-9458
▁rogue	-9459
▁sanct	-9460
▁scaff	-9461
▁slain	-9462
▁socio	-9463
▁stall	-9464
▁steed	-9465
▁talks	-9466
▁thumb	-9467
▁tries	-9468
▁veter	-9469
▁vigil	-9470
▁warri	-9471
ceiving	-9472
ittered	-9473
nothing	-9474
sequent	-9475
▁Beetle	-9476
▁Behind	-9477
▁active	-9478
▁behave	-9479
▁breaks	-9480
▁compon	-9481
▁conver	-9482
▁divide	-9483
▁fitted	-9484
▁flowed	-9485
▁gentry	-9486
▁greasy	-9487
▁guards	-9488
▁heroic	-9489
▁humour	-9490
▁impart	-9491
▁infect	-9492
▁intern	-9493
▁leaped	-9494
▁musing	-9495
▁odious	-9496
▁persec	-9497
▁pounds	-9498
▁propag	-9499
▁racing	-9500
▁reduce	-9501
▁refuge	-9502
▁rooted	-9503
▁shades	-9504
▁shaken	-9505
▁shirts	-9506
▁shriek	-9507
▁singer	-9508
▁stores	-9509
▁symbol	-9510
▁taller	-9511
▁tranqu	-9512
▁troops	-9513
andering	-9514
aryushka	-9515
educated	-9516
▁Nadenka	-9517
▁adorned	-9518
▁avoided	-9519
▁climbed	-9520
▁compare	-9521
▁crooked	-9522
▁discipl	-9523
▁enables	-9524
▁eyelids	-9525
▁formula	-9526
▁happier	-9527
▁hissing	-9528
▁howling	-9529
▁insects	-9530
▁mingled	-9531
▁orderly	-9532
▁orphans	-9533
▁parched	-9534
▁parlour	-9535
▁pledges	-9536
▁presume	-9537
▁privile	-9538
▁product	-9539
▁prudent	-9540
▁rapture	-9541
▁refined	-9542
▁rejoice	-9543
▁revenue	-9544
▁rubbish	-9545
▁seconds	-9546
▁seizing	-9547
▁shallow	-9548
▁sunrise	-9549
▁tapping	-9550
▁tremend	-9551
▁twisted	-9552
▁whereby	-9553
▁whither	-9554
fashioned	-9555
reciation	-9556
teresting	-9557
▁Although	-9558
▁Farewell	-9559
▁Learning	-9560
▁Napoleon	-9561
▁Stinging	-9562
▁Whatever	-9563
▁accursed	-9564
▁certific	-9565
▁circling	-9566
▁clasping	-9567
▁commonly	-9568
▁conveyed	-9569
▁critical	-9570
▁crumpled	-9571
▁exchange	-9572
▁fourteen	-9573
▁gigantic	-9574
▁gorgeous	-9575
▁intermin	-9576
▁mattress	-9577
▁memorial	-9578
▁mistrust	-9579
▁northern	-9580
▁overhead	-9581
▁phantoms	-9582
▁quivered	-9583
▁respects	-9584
▁restored	-9585
▁screamed	-9586
▁screwing	-9587
▁searched	-9588
▁shifting	-9589
▁slightly	-9590
▁slippers	-9591
▁smelling	-9592
▁softened	-9593
▁software	-9594
▁stalwart	-9595
▁supplied	-9596
▁thirteen	-9597
▁unintell	-9598
▁Frenchman	-9599
▁annoyance	-9600
▁backwards	-9601
▁cucumbers	-9602
▁displayed	-9603
▁distorted	-9604
▁disturbed	-9605
▁establish	-9606
▁factories	-9607
▁graveyard	-9608
▁hastening	-9609
▁horseback	-9610
▁imperfect	-9611
▁incessant	-9612
▁inquiries	-9613
▁malicious	-9614
▁malignant	-9615
▁operating	-9616
▁perceived	-9617
▁persisted	-9618
▁possessed	-9619
▁posterior	-9620
▁predicted	-9621
▁privately	-9622
▁recalling	-9623
▁recognise	-9624
▁responses	-9625
▁righteous	-9626
▁sensitive	-9627
▁sentenced	-9628
▁slaughter	-9629
▁stumbling	-9630
▁turbulent	-9631
▁weariness	-9632
struldbrugs	-9633
▁Dostoevsky	-9634
▁Lieutenant	-9635
▁accomplish	-9636
▁bridegroom	-9637
▁carelessly	-9638
▁complained	-9639
▁complexity	-9640
▁constantly	-9641
▁consulting	-9642
▁foundation	-9643
▁incoherent	-9644
▁infinitely	-9645
▁pawnbroker	-9646
▁suspicions	-9647
▁unbearable	-9648
▁voluptuous	-9649
▁Kapernaumov	-9650
▁accordingly	-9651
▁compartment	-9652
▁discoveries	-9653
▁distinction	-9654
▁entertained	-9655
▁exaggerated	-9656
▁inclination	-9657
▁statistical	-9658
▁translation	-9659
▁overwhelming	-9660
▁respectfully	-9661
▁possibilities	-9662
▁technological	-9663
▁unconsciously	-9664
▁distributional	-9665
▁reconstruction	-9666
4]	-9667
83	-9668
CM	-9669
NA	-9670
ki	-9671
wk	-9672
yl	-9673
’,	-9674
▁-	-9675
▁x	-9676
--(	-9677
.10	-9678
May	-9679
Our	-9680
aus	-9681
bus	-9682
era	-9683
foo	-9684
hew	-9685
icy	-9686
nut	-9687
oma	-9688
son	-9689
uni	-9690
▁Ga	-9691
▁ML	-9692
▁Ob	-9693
▁ah	-9694
▁cu	-9695
▁hm	-9696
aman	-9697
amil	-9698
anke	-9699
aply	-9700
arms	-9701
cuit	-9702
fall	-9703
fast	-9704
iana	-9705
iece	-9706
made	-9707
mons	-9708
olas	-9709
rive	-9710
shev	-9711
stri	-9712
trap	-9713
ucky	-9714
view	-9715
will	-9716
▁Atl	-9717
▁Bat	-9718
▁Cle	-9719
▁Eve	-9720
▁Kry	-9721
▁Met	-9722
▁OGC	-9723
▁Pre	-9724
▁Rel	-9725
▁Sur	-9726
▁Too	-9727
▁Wal	-9728
▁bir	-9729
▁bol	-9730
▁bou	-9731
▁cob	-9732
▁cyn	-9733
▁fib	-9734
▁rip	-9735
▁vap	-9736
Every	-9737
Quite	-9738
Shall	-9739
Sonia	-9740
ankin	-9741
annel	-9742
ansky	-9743
asury	-9744
cloud	-9745
ctors	-9746
eitch	-9747
erned	-9748
etles	-9749
faces	-9750
illor	-9751
iptoe	-9752
lings	-9753
model	-9754
three	-9755
▁2017	-9756
▁Akul	-9757
▁Dark	-9758
▁Four	-9759
▁Ital	-9760
▁Kamy	-9761
▁Past	-9762
▁Pavl	-9763
▁Phil	-9764
▁Pole	-9765
▁Than	-9766
▁Whom	-9767
▁Work	-9768
▁ache	-9769
▁adop	-9770
▁airs	-9771
▁bite	-9772
▁bure	-9773
▁cack	-9774
▁cuts	-9775
▁dine	-9776
▁ends	-9777
▁gidd	-9778
▁gurg	-9779
▁hats	-9780
▁peal	-9781
▁pile	-9782
▁pool	-9783
▁prow	-9784
▁rasp	-9785
▁rear	-9786
▁rely	-9787
▁rous	-9788
▁sane	-9789
▁saun	-9790
▁scan	-9791
▁sinc	-9792
▁stur	-9793
▁surv	-9794
▁syll	-9795
▁ties	-9796
▁vale	-9797
▁witt	-9798
Dounia	-9799
ansion	-9800
culine	-9801
istent	-9802
spring	-9803
stones	-9804
urious	-9805
utters	-9806
vation	-9807
▁2024.	-9808
▁Almer	-9809
▁Baker	-9810
▁China	-9811
▁Forty	-9812
▁House	-9813
▁Leave	-9814
▁Proud	-9815
▁Union	-9816
▁Vanka	-9817
▁adore	-9818
▁arose	-9819
▁bayon	-9820
▁bends	-9821
▁blown	-9822
▁brick	-9823
▁capit	-9824
▁crash	-9825
▁desir	-9826
▁dingy	-9827
▁disin	-9828
▁error	-9829
▁fears	-9830
▁gaunt	-9831
▁grant	-9832
▁graph	-9833
▁hairs	-9834
▁hangs	-9835
▁herds	-9836
▁hints	-9837
▁knelt	-9838
▁lords	-9839
▁moder	-9840
▁provo	-9841
▁pyram	-9842
▁ruins	-9843
▁scept	-9844
▁score	-9845
▁seats	-9846
▁shaft	-9847
▁snowy	-9848
▁spine	-9849
▁sting	-9850
▁throb	-9851
▁users	-9852
▁vehic	-9853
▁wrest	-9854
actions	-9855
inkling	-9856
itative	-9857
joining	-9858
rection	-9859
▁2023).	-9860
▁Anyway	-9861
▁Missou	-9862
▁Served	-9863
▁Sigaev	-9864
▁Street	-9865
▁ancest	-9866
▁appeal	-9867
▁attain	-9868
▁butter	-9869
▁charms	-9870
▁clutch	-9871
▁correl	-9872
▁covers	-9873
▁diamet	-9874
▁dissip	-9875
▁fathom	-9876
▁feeble	-9877
▁fulfil	-9878
▁furthe	-9879
▁histor	-9880
▁inquis	-9881
▁insane	-9882
▁levels	-9883
▁luxury	-9884
▁nodded	-9885
▁offers	-9886
▁powers	-9887
▁rebell	-9888
▁region	-9889
▁sailed	-9890
▁salute	-9891
▁series	-9892
▁server	-9893
▁sewing	-9894
▁shared	-9895
▁shower	-9896
▁skelet	-9897
▁sovere	-9898
▁sprang	-9899
▁submit	-9900
▁tiptoe	-9901
▁towers	-9902
▁tricks	-9903
▁trifle	-9904
▁unmist	-9905
▁wafted	-9906
▁wishes	-9907
▁Martyrs	-9908
▁Passage	-9909
▁Pelagea	-9910
▁Singing	-9911
▁Spanish	-9912
▁amusing	-9913
▁broader	-9914
▁citizen	-9915
▁convent	-9916
▁decline	-9917
▁deepest	-9918
▁depends	-9919
▁dresses	-9920
▁earthly	-9921
▁elderly	-9922
▁enhance	-9923
▁exhibit	-9924
▁fathers	-9925
▁flashes	-9926
▁flatter	-9927
▁hastily	-9928
▁inquire	-9929
▁lacking	-9930
▁languid	-9931
▁lantern	-9932
▁lectern	-9933
▁letting	-9934
▁muddled	-9935
▁paradig	-9936
▁periods	-9937
▁praying	-9938
▁prostit	-9939
▁pursuit	-9940
▁schemes	-9941
▁shelter	-9942
▁shopman	-9943
▁signify	-9944
▁snapped	-9945
▁speaker	-9946
▁spheres	-9947
▁stirred	-9948
▁strings	-9949
▁summary	-9950
▁sustain	-9951
▁sweeter	-9952
▁tyrants	-9953
▁weighed	-9954
▁Dashenka	-9955
▁Kamyshev	-9956
▁Virginia	-9957
▁awaiting	-9958
▁becoming	-9959
▁blooming	-9960
▁commerce	-9961
▁computed	-9962
▁confound	-9963
▁contract	-9964
▁convince	-9965
▁departed	-9966
▁discours	-9967
▁division	-9968
▁doctrine	-9969
▁engineer	-9970
▁entities	-9971
▁expenses	-9972
▁fragrant	-9973
▁gestures	-9974
▁grandeur	-9975
▁harmless	-9976
▁holdings	-9977
▁inclined	-9978
▁insolent	-9979
▁intimate	-9980
▁majority	-9981
▁marrying	-9982
▁monarchs	-9983
▁moreover	-9984
▁mouthful	-9985
▁orchards	-9986
▁pilgrims	-9987
▁products	-9988
▁punished	-9989
▁purchase	-9990
▁pursuing	-9991
▁regarded	-9992
▁relating	-9993
▁scolding	-9994
▁secretly	-9995
▁sleepers	-9996
▁sturgeon	-9997
▁theories	-9998
▁trailing	-9999
▁treacher	-10000
▁triumphs	-10001
▁villages	-10002
▁visiting	-10003
▁weighing	-10004
▁worrying	-10005
▁Alexeitch	-10006
▁Monastery	-10007
▁accidents	-10008
▁afterward	-10009
▁anxiously	-10010
▁appointed	-10011
▁attempted	-10012
▁committed	-10013
▁confident	-10014
▁confirmed	-10015
▁contained	-10016
▁excessive	-10017
▁flattered	-10018
▁greatness	-10019
▁increases	-10020
▁innocence	-10021
▁invisible	-10022
▁landowner	-10023
▁masculine	-10024
▁merchants	-10025
▁painfully	-10026
▁pondering	-10027
▁portfolio	-10028
▁readiness	-10029
▁recognize	-10030
▁remaining	-10031
▁resources	-10032
▁servitude	-10033
▁sincerity	-10034
▁standards	-10035
▁swallowed	-10036
▁tormented	-10037
▁travelled	-10038
▁twitching	-10039
▁undertone	-10040
▁venerable	-10041
▁viewpoint	-10042
▁worthless	-10043
▁Washington	-10044
▁algorithms	-10045
▁categories	-10046
▁commanding	-10047
▁consisting	-10048
▁countrymen	-10049
▁distracted	-10050
▁disturbing	-10051
▁dreadfully	-10052
▁elasticity	-10053
▁expressing	-10054
▁hysterical	-10055
▁individual	-10056
▁influences	-10057
▁intentions	-10058
▁inventions	-10059
▁noticeable	-10060
▁perspiring	-10061
▁processing	-10062
▁professors	-10063
▁shuddering	-10064
▁successful	-10065
▁volatility	-10066
▁acknowledge	-10067
▁application	-10068
▁demonstrate	-10069
▁employments	-10070
▁everlasting	-10071
▁expectation	-10072
▁fashionable	-10073
▁generations	-10074
▁independent	-10075
▁measurement	-10076
▁obligations	-10077
▁sentimental	-10078
▁exclamations	-10079
▁institutions	-10080
▁preparations	-10081
▁spiritualism	-10082
▁uncomfortable	-10083
▁uninteresting	-10084
▁transportation	-10085
13	-10086
17	-10087
2,	-10088
38	-10089
45	-10090
5]	-10091
9,	-10092
BL	-10093
EM	-10094
OV	-10095
RI	-10096
da	-10097
dr	-10098
eg	-10099
po	-10100
uh	-10101
ui	-10102
▁+	-10103
--'	-10104
AGE	-10105
His	-10106
apa	-10107
bby	-10108
fed	-10109
hop	-10110
iac	-10111
ieg	-10112
ien	-10113
lor	-10114
lyn	-10115
nga	-10116
omy	-10117
pan	-10118
pef	-10119
rat	-10120
sar	-10121
umy	-10122
upp	-10123
▁ON	-10124
▁fi	-10125
▁ju	-10126
▁ow	-10127
▁“_	-10128
Upon	-10129
acks	-10130
aggy	-10131
ahar	-10132
cont	-10133
down	-10134
girl	-10135
heum	-10136
hole	-10137
lich	-10138
odox	-10139
oops	-10140
pels	-10141
post	-10142
pout	-10143
rigg	-10144
sail	-10145
sell	-10146
song	-10147
uary	-10148
uced	-10149
umer	-10150
▁Ben	-10151
▁Cir	-10152
▁Isn	-10153
▁Lud	-10154
▁Men	-10155
▁Mus	-10156
▁Oft	-10157
▁Pra	-10158
▁Six	-10159
▁Unf	-10160
▁ank	-10161
▁awa	-10162
▁ced	-10163
▁cov	-10164
▁dir	-10165
▁ebb	-10166
▁edd	-10167
▁lam	-10168
▁lif	-10169
▁ora	-10170
▁pip	-10171
▁rav	-10172
▁rul	-10173
▁rye	-10174
▁sho	-10175
▁sul	-10176
▁tid	-10177
▁ult	-10178
▁wax	-10179
Never	-10180
Uncle	-10181
anasy	-10182
arers	-10183
arrow	-10184
boots	-10185
cying	-10186
eight	-10187
ensky	-10188
frequ	-10189
iably	-10190
icism	-10191
iller	-10192
imper	-10193
isome	-10194
isure	-10195
liest	-10196
occup	-10197
ouchs	-10198
ptive	-10199
ropri	-10200
uming	-10201
utive	-10202
yards	-10203
▁Anya	-10204
▁Aust	-10205
▁Coll	-10206
▁Damn	-10207
▁Imag	-10208
▁Klim	-10209
▁Laev	-10210
▁Leon	-10211
▁Mond	-10212
▁Port	-10213
▁Save	-10214
▁Swed	-10215
▁Turk	-10216
▁aust	-10217
▁aven	-10218
▁awak	-10219
▁axes	-10220
▁bash	-10221
▁bond	-10222
▁bony	-10223
▁cats	-10224
▁chis	-10225
▁elev	-10226
▁file	-10227
▁foul	-10228
▁fres	-10229
▁fret	-10230
▁glut	-10231
▁gown	-10232
▁hudd	-10233
▁lays	-10234
▁lest	-10235
▁mars	-10236
▁nick	-10237
▁park	-10238
▁perv	-10239
▁pots	-10240
▁rais	-10241
▁reap	-10242
▁rice	-10243
▁span	-10244
▁suck	-10245
▁suic	-10246
▁tame	-10247
▁tune	-10248
▁type	-10249
▁unim	-10250
▁verd	-10251
Comple	-10252
amming	-10253
ancers	-10254
arting	-10255
driven	-10256
ements	-10257
escrib	-10258
levard	-10259
ouched	-10260
riment	-10261
riting	-10262
thodox	-10263
uction	-10264
yushka	-10265
▁Black	-10266
▁Build	-10267
▁Carol	-10268
▁Fresh	-10269
▁Lands	-10270
▁March	-10271
▁Parad	-10272
▁State	-10273
▁Styop	-10274
▁Uncle	-10275
▁Young	-10276
▁Zahar	-10277
▁aches	-10278
▁adapt	-10279
▁aloft	-10280
▁aloof	-10281
▁areas	-10282
▁aspir	-10283
▁balls	-10284
▁barns	-10285
▁bleed	-10286
▁boxes	-10287
▁camps	-10288
▁cared	-10289
▁carts	-10290
▁clang	-10291
▁cloak	-10292
▁coinc	-10293
▁copse	-10294
▁cream	-10295
▁crops	-10296
▁crows	-10297
▁deput	-10298
▁didst	-10299
▁draws	-10300
▁dropt	-10301
▁groan	-10302
▁grove	-10303
▁herbs	-10304
▁hides	-10305
▁homes	-10306
▁hoofs	-10307
▁impal	-10308
▁impud	-10309
▁leapt	-10310
▁magic	-10311
▁meets	-10312
▁melod	-10313
▁peaks	-10314
▁realm	-10315
▁rooks	-10316
▁sends	-10317
▁shuff	-10318
▁sinks	-10319
▁slugg	-10320
▁spell	-10321
▁spots	-10322
▁strip	-10323
▁swoon	-10324
▁tails	-10325
▁urged	-10326
▁valid	-10327
▁veins	-10328
▁wages	-10329
▁wrigg	-10330
Brother	-10331
ervices	-10332
inately	-10333
ishness	-10334
lements	-10335
olesome	-10336
oration	-10337
othesis	-10338
version	-10339
▁2021).	-10340
▁August	-10341
▁Columb	-10342
▁Divine	-10343
▁Fyokla	-10344
▁Jewish	-10345
▁Lenten	-10346
▁Strong	-10347
▁abound	-10348
▁actors	-10349
▁afford	-10350
▁ascend	-10351
▁boiled	-10352
▁branch	-10353
▁bugles	-10354
▁bullet	-10355
▁carpet	-10356
▁chilly	-10357
▁damned	-10358
▁deaths	-10359
▁defeat	-10360
▁divert	-10361
▁eighty	-10362
▁emerge	-10363
▁emphat	-10364
▁expand	-10365
▁extrem	-10366
▁frames	-10367
▁garret	-10368
▁handle	-10369
▁homage	-10370
▁joints	-10371
▁knives	-10372
▁launch	-10373
▁league	-10374
▁liquor	-10375
▁loaded	-10376
▁micros	-10377
▁paraly	-10378
▁parcel	-10379
▁perish	-10380
▁protoc	-10381
▁purity	-10382
▁redeem	-10383
▁retire	-10384
▁rhythm	-10385
▁shaggy	-10386
▁shares	-10387
▁shells	-10388
▁soaked	-10389
▁sprung	-10390
▁stuffy	-10391
▁stupef	-10392
▁tangle	-10393
▁tasted	-10394
▁thrift	-10395
▁throws	-10396
▁topics	-10397
▁trough	-10398
▁verses	-10399
▁wailed	-10400
▁Afanasy	-10401
▁Between	-10402
▁Tuesday	-10403
▁antique	-10404
▁aroused	-10405
▁blankly	-10406
▁blinked	-10407
▁boredom	-10408
▁carries	-10409
▁cavalry	-10410
▁charity	-10411
▁circles	-10412
▁committ	-10413
▁contact	-10414
▁costume	-10415
▁cottage	-10416
▁creaked	-10417
▁dearest	-10418
▁empress	-10419
▁farmers	-10420
▁feature	-10421
▁flooded	-10422
▁footmen	-10423
▁founded	-10424
▁frankly	-10425
▁interfe	-10426
▁killing	-10427
▁largely	-10428
▁leisure	-10429
▁manager	-10430
▁manhood	-10431
▁members	-10432
▁mockery	-10433
▁monster	-10434
▁oysters	-10435
▁parties	-10436
▁percent	-10437
▁players	-10438
▁prairie	-10439
▁pursued	-10440
▁realise	-10441
▁regions	-10442
▁remarks	-10443
▁remorse	-10444
▁restore	-10445
▁roughly	-10446
▁satisfy	-10447
▁slander	-10448
▁sloping	-10449
▁stifled	-10450
▁strains	-10451
▁subdued	-10452
▁summons	-10453
▁torrent	-10454
▁wealthy	-10455
Certainly	-10456
frequency	-10457
urrection	-10458
▁Saturday	-10459
▁ambition	-10460
▁backbone	-10461
▁behavior	-10462
▁boarding	-10463
▁borrowed	-10464
▁commands	-10465
▁constant	-10466
▁contrast	-10467
▁fancying	-10468
▁forwards	-10469
▁furthest	-10470
▁garments	-10471
▁horribly	-10472
▁imprison	-10473
▁inquired	-10474
▁involved	-10475
▁literary	-10476
▁loathing	-10477
▁manifest	-10478
▁meanings	-10479
▁meanness	-10480
▁overtook	-10481
▁passages	-10482
▁pleasing	-10483
▁prospect	-10484
▁reckless	-10485
▁regiment	-10486
▁resolute	-10487
▁sinister	-10488
▁slanting	-10489
▁softness	-10490
▁southern	-10491
▁spoonful	-10492
▁stealing	-10493
▁swarming	-10494
▁trifling	-10495
▁wringing	-10496
▁Daryushka	-10497
▁Following	-10498
▁Polyansky	-10499
▁Whereupon	-10500
▁absorbing	-10501
▁allowance	-10502
▁artillery	-10503
▁believing	-10504
▁blockhead	-10505
▁collected	-10506
▁courtyard	-10507
▁diffusion	-10508
▁embracing	-10509
▁epistemic	-10510
▁fishermen	-10511
▁greetings	-10512
▁immediate	-10513
▁insulting	-10514
▁lingering	-10515
▁magnitude	-10516
▁miserably	-10517
▁obedience	-10518
▁platforms	-10519
▁pleasures	-10520
▁preceding	-10521
▁presently	-10522
▁preserved	-10523
▁providing	-10524
▁squeezing	-10525
▁struggles	-10526
▁transform	-10527
▁traveller	-10528
▁treasurer	-10529
▁accounting	-10530
▁additional	-10531
▁associated	-10532
▁challenges	-10533
▁characters	-10534
▁chattering	-10535
▁colleagues	-10536
▁connection	-10537
▁continents	-10538
▁councillor	-10539
▁department	-10540
▁depression	-10541
▁descending	-10542
▁detestable	-10543
▁fascinated	-10544
▁hypothesis	-10545
▁impalpable	-10546
▁infallibly	-10547
▁infidelity	-10548
▁invitation	-10549
▁irritation	-10550
▁listlessly	-10551
▁matchmaker	-10552
▁mentioning	-10553
▁photograph	-10554
▁protection	-10555
▁reconciled	-10556
▁recovering	-10557
▁remarkable	-10558
▁respectful	-10559
▁scientific	-10560
▁simplicity	-10561
▁subjective	-10562
▁subsequent	-10563
▁supporting	-10564
▁technology	-10565
▁traditions	-10566
▁underneath	-10567
▁victorious	-10568
▁workpeople	-10569
▁Ippolititch	-10570
▁Mathematics	-10571
▁aspirations	-10572
▁awkwardness	-10573
▁certificate	-10574
▁conditional	-10575
▁corruptions	-10576
▁fascinating	-10577
▁impressions	-10578
▁inspiration	-10579
▁interpreter	-10580
▁refreshment	-10581
▁reluctantly	-10582
▁temperament	-10583
▁traditional	-10584
▁architecture	-10585
▁convulsively	-10586
▁depreciation	-10587
▁epistemology	-10588
▁insufferable	-10589
▁interminable	-10590
▁irresistible	-10591
▁approximately	-10592
▁approximation	-10593
▁distributions	-10594
▁insignificant	-10595
▁participatory	-10596
▁sarcastically	-10597
▁simultaneously	-10598
18	-10599
23	-10600
By	-10601
RE	-10602
Tw	-10603
uk	-10604
)--	-10605
.20	-10606
2).	-10607
ION	-10608
aes	-10609
auc	-10610
aud	-10611
aun	-10612
bet	-10613
boo	-10614
bur	-10615
fla	-10616
ico	-10617
iem	-10618
inn	-10619
met	-10620
mpt	-10621
nib	-10622
ota	-10623
ovo	-10624
pro	-10625
ran	-10626
ras	-10627
sal	-10628
ugh	-10629
uta	-10630
uzz	-10631
vas	-10632
wig	-10633
▁AI	-10634
▁Kn	-10635
▁ly	-10636
Damn	-10637
acts	-10638
bble	-10639
bted	-10640
eled	-10641
elly	-10642
elov	-10643
feet	-10644
fish	-10645
gent	-10646
hale	-10647
ieth	-10648
imir	-10649
kily	-10650
norm	-10651
oder	-10652
ogen	-10653
reme	-10654
ribe	-10655
skin	-10656
term	-10657
twas	-10658
urch	-10659
urdy	-10660
urns	-10661
worn	-10662
zhin	-10663
▁Che	-10664
▁Dis	-10665
▁EoR	-10666
▁Equ	-10667
▁Ext	-10668
▁GUP	-10669
▁Lag	-10670
▁Lou	-10671
▁Min	-10672
▁Pac	-10673
▁Sav	-10674
▁Sev	-10675
▁Ste	-10676
▁Tex	-10677
▁Tre	-10678
▁Wed	-10679
▁bis	-10680
▁cel	-10681
▁fel	-10682
▁ger	-10683
▁gos	-10684
▁hog	-10685
▁hue	-10686
▁jol	-10687
▁lav	-10688
▁mim	-10689
▁mob	-10690
▁nap	-10691
▁nut	-10692
▁omn	-10693
▁owl	-10694
▁pix	-10695
▁rag	-10696
▁tie	-10697
▁tig	-10698
▁tom	-10699
▁tub	-10700
andah	-10701
ansas	-10702
asper	-10703
assed	-10704
beard	-10705
bones	-10706
bound	-10707
could	-10708
emper	-10709
erves	-10710
icial	-10711
iders	-10712
ighty	-10713
illed	-10714
illes	-10715
nibar	-10716
nings	-10717
reams	-10718
repit	-10719
riers	-10720
teous	-10721
these	-10722
thren	-10723
▁Alas	-10724
▁Back	-10725
▁Cent	-10726
▁Cong	-10727
▁Evid	-10728
▁Expl	-10729
▁Fore	-10730
▁Keep	-10731
▁King	-10732
▁Mind	-10733
▁Otch	-10734
▁Ress	-10735
▁Turn	-10736
▁VIII	-10737
▁View	-10738
▁[...	-10739
▁alms	-10740
▁bade	-10741
▁bask	-10742
▁burg	-10743
▁club	-10744
▁clue	-10745
▁craw	-10746
▁dies	-10747
▁diet	-10748
▁dram	-10749
▁enig	-10750
▁fals	-10751
▁fert	-10752
▁ferv	-10753
▁feud	-10754
▁fier	-10755
▁fuss	-10756
▁hare	-10757
▁haze	-10758
▁hips	-10759
▁idol	-10760
▁mail	-10761
▁meal	-10762
▁moan	-10763
▁mode	-10764
▁narr	-10765
▁neat	-10766
▁outs	-10767
▁owed	-10768
▁pudd	-10769
▁roam	-10770
▁seal	-10771
▁seve	-10772
▁snee	-10773
▁spin	-10774
▁sund	-10775
▁trod	-10776
▁uses	-10777
▁vind	-10778
▁wert	-10779
▁yoke	-10780
/10.10	-10781
arding	-10782
chback	-10783
erment	-10784
etting	-10785
fields	-10786
hinged	-10787
istics	-10788
ometry	-10789
oosing	-10790
ximate	-10791
▁Alban	-10792
▁Allow	-10793
▁Apart	-10794
▁April	-10795
▁Fancy	-10796
▁Forth	-10797
▁Georg	-10798
▁Given	-10799
▁Pante	-10800
▁Sleep	-10801
▁Trans	-10802
▁Vaska	-10803
▁Years	-10804
▁appar	-10805
▁arist	-10806
▁artis	-10807
▁bathe	-10808
▁birch	-10809
▁blunt	-10810
▁carol	-10811
▁coars	-10812
▁consp	-10813
▁debts	-10814
▁delay	-10815
▁droop	-10816
▁eagle	-10817
▁eclip	-10818
▁enorm	-10819
▁fatig	-10820
▁fills	-10821
▁flags	-10822
▁flats	-10823
▁frail	-10824
▁freck	-10825
▁fumes	-10826
▁grasp	-10827
▁helps	-10828
▁hired	-10829
▁hooks	-10830
▁immov	-10831
▁impot	-10832
▁infam	-10833
▁invar	-10834
▁jewel	-10835
▁livel	-10836
▁obliv	-10837
▁pangs	-10838
▁pious	-10839
▁plaus	-10840
▁prize	-10841
▁rheum	-10842
▁roast	-10843
▁skirt	-10844
▁slope	-10845
▁sooth	-10846
▁stare	-10847
▁sunny	-10848
▁swept	-10849
▁thump	-10850
▁toils	-10851
▁token	-10852
▁toler	-10853
▁tones	-10854
▁topic	-10855
▁troop	-10856
▁unnot	-10857
▁usher	-10858
▁venge	-10859
▁weren	-10860
▁wider	-10861
▁wield	-10862
▁wiped	-10863
Forgive	-10864
alities	-10865
amiliar	-10866
animous	-10867
asingly	-10868
itivity	-10869
ittance	-10870
perhaps	-10871
uations	-10872
umyelov	-10873
versely	-10874
yevitch	-10875
▁Akulka	-10876
▁Artyom	-10877
▁Beauty	-10878
▁Better	-10879
▁Comput	-10880
▁Invest	-10881
▁Kirill	-10882
▁Krylin	-10883
▁Monday	-10884
▁Shapes	-10885
▁Should	-10886
▁Thanks	-10887
▁Toward	-10888
▁Venice	-10889
▁accent	-10890
▁advise	-10891
▁athlet	-10892
▁awaked	-10893
▁barber	-10894
▁barren	-10895
▁blamed	-10896
▁bucket	-10897
▁builds	-10898
▁bureau	-10899
▁cathed	-10900
▁christ	-10901
▁clergy	-10902
▁coldly	-10903
▁covari	-10904
▁create	-10905
▁dances	-10906
▁darted	-10907
▁destin	-10908
▁detect	-10909
▁drawer	-10910
▁drives	-10911
▁ending	-10912
▁expert	-10913
▁forces	-10914
▁hanger	-10915
▁heated	-10916
▁hissed	-10917
▁hushed	-10918
▁joined	-10919
▁laurel	-10920
▁licked	-10921
▁limits	-10922
▁lustre	-10923
▁machin	-10924
▁martyr	-10925
▁medium	-10926
▁myriad	-10927
▁nurses	-10928
▁output	-10929
▁overhe	-10930
▁parish	-10931
▁patron	-10932
▁pistol	-10933
▁plates	-10934
▁plural	-10935
▁rattle	-10936
▁realms	-10937
▁refres	-10938
▁remove	-10939
▁repose	-10940
▁retain	-10941
▁ribbon	-10942
▁rudely	-10943
▁rumble	-10944
▁saddle	-10945
▁sheets	-10946
▁sinner	-10947
▁spared	-10948
▁sphere	-10949
▁stains	-10950
▁stated	-10951
▁streak	-10952
▁strive	-10953
▁strode	-10954
▁terrif	-10955
▁thrash	-10956
▁thresh	-10957
▁throes	-10958
▁tyrant	-10959
▁united	-10960
▁unwell	-10961
▁upward	-10962
▁vouchs	-10963
▁widely	-10964
▁wiping	-10965
▁worlds	-10966
▁wreath	-10967
colonial	-10968
iciently	-10969
mountain	-10970
ordinary	-10971
▁Danilka	-10972
▁Eastern	-10973
▁Finally	-10974
▁Haraway	-10975
▁Italian	-10976
▁Pacific	-10977
▁Someone	-10978
▁admired	-10979
▁advised	-10980
▁annoyed	-10981
▁apprent	-10982
▁arising	-10983
▁attacks	-10984
▁bathing	-10985
▁beseech	-10986
▁blurted	-10987
▁boiling	-10988
▁breasts	-10989
▁broadly	-10990
▁ceasing	-10991
▁chasing	-10992
▁chimney	-10993
▁compens	-10994
▁condemn	-10995
▁copious	-10996
▁defects	-10997
▁denotes	-10998
▁dreaded	-10999
▁drivers	-11000
▁engines	-11001
▁failing	-11002
▁failure	-11003
▁fetters	-11004
▁fitting	-11005
▁flutter	-11006
▁freshly	-11007
▁glances	-11008
▁granted	-11009
▁greeted	-11010
▁indices	-11011
▁lighter	-11012
▁marches	-11013
▁meadows	-11014
▁modesty	-11015
▁motions	-11016
▁murmurs	-11017
▁naughty	-11018
▁obscure	-11019
▁painter	-11020
▁partner	-11021
▁passers	-11022
▁peeping	-11023
▁pirates	-11024
▁posting	-11025
▁propped	-11026
▁puffing	-11027
▁reports	-11028
▁routine	-11029
▁shadowy	-11030
▁showers	-11031
▁sleeves	-11032
▁smeared	-11033
▁spoiled	-11034
▁steamer	-11035
▁stooped	-11036
▁sublime	-11037
▁suicide	-11038
▁superfl	-11039
▁swaying	-11040
▁tickets	-11041
▁variety	-11042
▁wearied	-11043
Completer	-11044
▁Columbia	-11045
▁Geometry	-11046
▁Panteley	-11047
▁Pashenka	-11048
▁Probably	-11049
▁Resslich	-11050
▁Unfolded	-11051
▁Wherever	-11052
▁applause	-11053
▁assuming	-11054
▁attacked	-11055
▁blushing	-11056
▁brethren	-11057
▁chastity	-11058
▁concerns	-11059
▁conclude	-11060
▁concrete	-11061
▁contrive	-11062
▁cowardly	-11063
▁curtains	-11064
▁deceased	-11065
▁decrepit	-11066
▁defiance	-11067
▁desirous	-11068
▁determin	-11069
▁devotion	-11070
▁diamonds	-11071
▁dreamily	-11072
▁earnings	-11073
▁eloquent	-11074
▁faintest	-11075
▁fainting	-11076
▁flinging	-11077
▁flitting	-11078
▁formerly	-11079
▁hovering	-11080
▁inherent	-11081
▁inspired	-11082
▁lectures	-11083
▁machines	-11084
▁managers	-11085
▁mourning	-11086
▁nighting	-11087
▁overtake	-11088
▁painting	-11089
▁populous	-11090
▁preoccup	-11091
▁proposal	-11092
▁regained	-11093
▁reported	-11094
▁sensibly	-11095
▁settling	-11096
▁severely	-11097
▁severity	-11098
▁singular	-11099
▁slapping	-11100
▁sullenly	-11101
▁sunbeams	-11102
▁swearing	-11103
▁troubles	-11104
▁twisting	-11105
▁unhinged	-11106
▁unworthy	-11107
▁verandah	-11108
▁wandered	-11109
▁wrinkled	-11110
escribable	-11111
▁According	-11112
▁Kozyavkin	-11113
▁Somewhere	-11114
▁abilities	-11115
▁adjoining	-11116
▁agreement	-11117
▁appearing	-11118
▁attending	-11119
▁belonging	-11120
▁breakfast	-11121
▁celebrate	-11122
▁colleague	-11123
▁commotion	-11124
▁community	-11125
▁consisted	-11126
▁departing	-11127
▁describes	-11128
▁disappear	-11129
▁diversion	-11130
▁effective	-11131
▁exclaimed	-11132
▁expanding	-11133
▁expansion	-11134
▁galloping	-11135
▁glittered	-11136
▁hunchback	-11137
▁murmuring	-11138
▁plenteous	-11139
▁preferred	-11140
▁pretended	-11141
▁reassured	-11142
▁semblance	-11143
▁shrinking	-11144
▁sickening	-11145
▁signature	-11146
▁statistic	-11147
▁stretches	-11148
▁supported	-11149
▁thrashing	-11150
▁thrusting	-11151
▁tradition	-11152
▁tremulous	-11153
▁unnoticed	-11154
▁valuation	-11155
▁wearisome	-11156
▁Demyanitch	-11157
▁benefactor	-11158
▁calculated	-11159
▁concealing	-11160
▁conceptual	-11161
▁containing	-11162
▁displeased	-11163
▁engagement	-11164
▁expressive	-11165
▁hopelessly	-11166
▁interposed	-11167
▁ironically	-11168
▁mournfully	-11169
▁negatively	-11170
▁performing	-11171
▁scoundrels	-11172
▁surprising	-11173
▁undressing	-11174
▁Otchumyelov	-11175
▁Varvarushka	-11176
▁alternative	-11177
▁appearances	-11178
▁apprehended	-11179
▁approximate	-11180
▁benevolence	-11181
▁cleanliness	-11182
▁commonplace	-11183
▁connections	-11184
▁constrained	-11185
▁consumptive	-11186
▁endeavoured	-11187
▁improvement	-11188
▁integration	-11189
▁perspective	-11190
▁potentially	-11191
▁proceedings	-11192
▁recollected	-11193
▁remembrance	-11194
▁Alexandritch	-11195
▁descriptions	-11196
▁irresolutely	-11197
▁multiplicity	-11198
▁philosophers	-11199
▁speculations	-11200
▁computational	-11201
▁corresponding	-11202
▁entertainment	-11203
▁international	-11204
▁investigation	-11205
▁observational	-11206
▁philosophical	-11207
▁profitability	-11208
▁interpretation	-11209
-3	-11210
.6	-11211
12	-11212
24	-11213
3,	-11214
4,	-11215
5)	-11216
6)	-11217
93	-11218
AV	-11219
En	-11220
IL	-11221
OD	-11222
OY	-11223
Bra	-11224
ISH	-11225
Ill	-11226
Yet	-11227
ags	-11228
bes	-11229
bra	-11230
car	-11231
dge	-11232
din	-11233
dis	-11234
edy	-11235
ege	-11236
fin	-11237
gic	-11238
mir	-11239
nik	-11240
ods	-11241
rab	-11242
rub	-11243
six	-11244
squ	-11245
tun	-11246
uan	-11247
yev	-11248
zly	-11249
▁".	-11250
▁Hm	-11251
▁Li	-11252
▁Py	-11253
▁Ty	-11254
▁US	-11255
▁Us	-11256
▁gn	-11257
Poor	-11258
Some	-11259
aire	-11260
asus	-11261
avil	-11262
bert	-11263
cope	-11264
dess	-11265
dish	-11266
drew	-11267
eese	-11268
elta	-11269
enet	-11270
inth	-11271
itya	-11272
iums	-11273
mach	-11274
mark	-11275
name	-11276
nity	-11277
opes	-11278
rang	-11279
rant	-11280
seen	-11281
shed	-11282
such	-11283
ulia	-11284
vsky	-11285
▁170	-11286
▁Ass	-11287
▁Bog	-11288
▁Bra	-11289
▁CLX	-11290
▁CXL	-11291
▁CXX	-11292
▁Dig	-11293
▁Edu	-11294
▁Eth	-11295
▁Hur	-11296
▁Inc	-11297
▁Inv	-11298
▁Lap	-11299
▁Lis	-11300
▁Mex	-11301
▁Mil	-11302
▁Mol	-11303
▁Rec	-11304
▁Say	-11305
▁Sky	-11306
▁VAR	-11307
▁Ved	-11308
▁gam	-11309
▁gib	-11310
▁gul	-11311
▁imb	-11312
▁mit	-11313
▁unn	-11314
▁upd	-11315
▁vib	-11316
Allow	-11317
Cough	-11318
Rodya	-11319
allic	-11320
allop	-11321
anges	-11322
asile	-11323
asion	-11324
assad	-11325
assim	-11326
boats	-11327
burnt	-11328
burst	-11329
eches	-11330
elled	-11331
going	-11332
iated	-11333
ibule	-11334
ifted	-11335
ilful	-11336
inkle	-11337
ioned	-11338
istry	-11339
itors	-11340
oklyn	-11341
ongru	-11342
orate	-11343
ordan	-11344
osive	-11345
ovsky	-11346
paper	-11347
pulch	-11348
racks	-11349
rical	-11350
rived	-11351
roves	-11352
storm	-11353
ufact	-11354
vance	-11355
would	-11356
zuhin	-11357
▁(199	-11358
▁CLXX	-11359
▁CXXX	-11360
▁Call	-11361
▁Cauc	-11362
▁Dead	-11363
▁Hand	-11364
▁Holl	-11365
▁Jove	-11366
▁July	-11367
▁June	-11368
▁Luka	-11369
▁Mine	-11370
▁Pest	-11371
▁Poor	-11372
▁Ship	-11373
▁Soul	-11374
▁Ward	-11375
▁area	-11376
▁begs	-11377
▁bids	-11378
▁brib	-11379
▁buzz	-11380
▁cake	-11381
▁chap	-11382
▁chem	-11383
▁cups	-11384
▁fors	-11385
▁fuel	-11386
▁hagg	-11387
▁halt	-11388
▁heir	-11389
▁idly	-11390
▁jeer	-11391
▁kick	-11392
▁lege	-11393
▁limb	-11394
▁link	-11395
▁loaf	-11396
▁mall	-11397
▁mant	-11398
▁maps	-11399
▁mask	-11400
▁mush	-11401
▁oaks	-11402
▁pern	-11403
▁rats	-11404
▁ripp	-11405
▁rumm	-11406
▁rupt	-11407
▁scur	-11408
▁shun	-11409
▁stab	-11410
▁subt	-11411
▁tent	-11412
▁wits	-11413
Illust	-11414
Kindly	-11415
Though	-11416
actory	-11417
ankind	-11418
atting	-11419
cerned	-11420
change	-11421
ciless	-11422
edient	-11423
encing	-11424
enteen	-11425
erring	-11426
estial	-11427
itchka	-11428
orning	-11429
rieved	-11430
semble	-11431
spread	-11432
tchkin	-11433
tyitch	-11434
urable	-11435
urance	-11436
witted	-11437
▁(2019	-11438
▁(2020	-11439
▁Belie	-11440
▁Delta	-11441
▁Erast	-11442
▁Grand	-11443
▁Heard	-11444
▁Lazar	-11445
▁Lubim	-11446
▁Mercy	-11447
▁Mitya	-11448
▁Mount	-11449
▁Ocean	-11450
▁Rhine	-11451
▁Syoma	-11452
▁Tears	-11453
▁Texas	-11454
▁Water	-11455
▁[...]	-11456
▁abhor	-11457
▁admon	-11458
▁align	-11459
▁array	-11460
▁arrog	-11461
▁bache	-11462
▁blush	-11463
▁bonds	-11464
▁brace	-11465
▁brawn	-11466
▁brisk	-11467
▁brows	-11468
▁cakes	-11469
▁calam	-11470
▁chose	-11471
▁cling	-11472
▁dealt	-11473
▁ether	-11474
▁excre	-11475
▁exped	-11476
▁explo	-11477
▁facil	-11478
▁fails	-11479
▁fiery	-11480
▁fired	-11481
▁geese	-11482
▁gills	-11483
▁halls	-11484
▁hares	-11485
▁hurts	-11486
▁indul	-11487
▁intox	-11488
▁jokes	-11489
▁latch	-11490
▁lones	-11491
▁lucky	-11492
▁magaz	-11493
▁males	-11494
▁maman	-11495
▁merge	-11496
▁noted	-11497
▁paler	-11498
▁patri	-11499
▁pavil	-11500
▁piled	-11501
▁rates	-11502
▁resil	-11503
▁reson	-11504
▁risks	-11505
▁rouse	-11506
▁rusty	-11507
▁scarf	-11508
▁scrap	-11509
▁shelf	-11510
▁slack	-11511
▁snuff	-11512
▁staid	-11513
▁strat	-11514
▁suits	-11515
▁sworn	-11516
▁tinct	-11517
▁tipsy	-11518
▁tires	-11519
▁twigs	-11520
▁types	-11521
▁unbut	-11522
▁vanqu	-11523
▁vigor	-11524
▁vines	-11525
▁viper	-11526
▁wears	-11527
igrants	-11528
itively	-11529
ocation	-11530
ouncing	-11531
theless	-11532
wigovna	-11533
zlyakov	-11534
▁Allons	-11535
▁Arkady	-11536
▁Around	-11537
▁Beside	-11538
▁Church	-11539
▁Comple	-11540
▁Either	-11541
▁Kirila	-11542
▁Lagado	-11543
▁Master	-11544
▁Murkin	-11545
▁Myself	-11546
▁Styopa	-11547
▁Vankin	-11548
▁abnorm	-11549
▁amidst	-11550
▁amused	-11551
▁anyhow	-11552
▁assert	-11553
▁brutal	-11554
▁canvas	-11555
▁carols	-11556
▁castor	-11557
▁contam	-11558
▁counts	-11559
▁curled	-11560
▁debate	-11561
▁define	-11562
▁devour	-11563
▁dwells	-11564
▁eddies	-11565
▁entity	-11566
▁escort	-11567
▁fading	-11568
▁fishes	-11569
▁gaping	-11570
▁gasped	-11571
▁golosh	-11572
▁induce	-11573
▁intrig	-11574
▁melted	-11575
▁mutual	-11576
▁needle	-11577
▁orange	-11578
▁permit	-11579
▁poetry	-11580
▁precip	-11581
▁proced	-11582
▁proofs	-11583
▁puffed	-11584
▁pulses	-11585
▁quiver	-11586
▁reform	-11587
▁relate	-11588
▁renown	-11589
▁reveal	-11590
▁review	-11591
▁routes	-11592
▁saving	-11593
▁starts	-11594
▁suited	-11595
▁sunken	-11596
▁tallow	-11597
▁tossed	-11598
▁trains	-11599
▁valley	-11600
▁valour	-11601
▁wilder	-11602
▁willow	-11603
▁wither	-11604
▁wolves	-11605
▁yields	-11606
▁yonder	-11607
ceedings	-11608
ordinate	-11609
specific	-11610
▁Artynov	-11611
▁British	-11612
▁Chinese	-11613
▁Emperor	-11614
▁Prokofy	-11615
▁Silence	-11616
▁Waiting	-11617
▁amorous	-11618
▁austere	-11619
▁beetles	-11620
▁breadth	-11621
▁buttons	-11622
▁chanted	-11623
▁charges	-11624
▁chilled	-11625
▁classes	-11626
▁clothed	-11627
▁confirm	-11628
▁counted	-11629
▁craving	-11630
▁cruelty	-11631
▁dashing	-11632
▁defiant	-11633
▁dinners	-11634
▁discont	-11635
▁display	-11636
▁eclipse	-11637
▁exasper	-11638
▁fireman	-11639
▁flaring	-11640
▁flights	-11641
▁foreman	-11642
▁gallant	-11643
▁granite	-11644
▁growths	-11645
▁happily	-11646
▁harmony	-11647
▁harness	-11648
▁huddled	-11649
▁immoral	-11650
▁implies	-11651
▁implore	-11652
▁inhuman	-11653
▁lecture	-11654
▁logical	-11655
▁noblest	-11656
▁pillows	-11657
▁pinched	-11658
▁portion	-11659
▁profile	-11660
▁prophet	-11661
▁publish	-11662
▁pushing	-11663
▁puzzled	-11664
▁radiant	-11665
▁recomme	-11666
▁reddish	-11667
▁reserve	-11668
▁ruffian	-11669
▁scatter	-11670
▁scraggy	-11671
▁sermons	-11672
▁serving	-11673
▁shortly	-11674
▁shrieks	-11675
▁sorrows	-11676
▁storeys	-11677
▁stripes	-11678
▁thinner	-11679
▁trained	-11680
▁unmoved	-11681
▁waiters	-11682
▁watches	-11683
▁whining	-11684
▁Atlantic	-11685
▁Balnibar	-11686
▁Brooklyn	-11687
▁Caucasus	-11688
▁Economic	-11689
▁Missouri	-11690
▁Paradise	-11691
▁Prospect	-11692
▁Remember	-11693
▁Strizhin	-11694
▁aversion	-11695
▁beauties	-11696
▁bursting	-11697
▁captains	-11698
▁chanting	-11699
▁choosing	-11700
▁citizens	-11701
▁clapping	-11702
▁combined	-11703
▁consists	-11704
▁delicacy	-11705
▁destined	-11706
▁diameter	-11707
▁disguise	-11708
▁distrust	-11709
▁downward	-11710
▁embraces	-11711
▁enabling	-11712
▁enclosed	-11713
▁enlarged	-11714
▁estimate	-11715
▁expelled	-11716
▁explored	-11717
▁exposure	-11718
▁governed	-11719
▁grumbled	-11720
▁habitual	-11721
▁identify	-11722
▁includes	-11723
▁inconven	-11724
▁indicate	-11725
▁inwardly	-11726
▁joyfully	-11727
▁lonesome	-11728
▁lovingly	-11729
▁manufact	-11730
▁mariners	-11731
▁matching	-11732
▁meetings	-11733
▁outlines	-11734
▁passport	-11735
▁pennants	-11736
▁polished	-11737
▁portrait	-11738
▁potatoes	-11739
▁pressure	-11740
▁promises	-11741
▁publicly	-11742
▁scaffold	-11743
▁scenario	-11744
▁shedding	-11745
▁shooting	-11746
▁slipping	-11747
▁smoothed	-11748
▁starving	-11749
▁summoned	-11750
▁sunlight	-11751
▁sweeping	-11752
▁tattered	-11753
▁tincture	-11754
▁towering	-11755
▁training	-11756
▁windmill	-11757
▁withdrew	-11758
▁withered	-11759
▁wrapping	-11760
▁Stytchkin	-11761
▁Yesterday	-11762
▁addresses	-11763
▁aimlessly	-11764
▁boulevard	-11765
▁celestial	-11766
▁cherished	-11767
▁committee	-11768
▁deafening	-11769
▁dejection	-11770
▁deviation	-11771
▁dexterity	-11772
▁drunkards	-11773
▁dwellings	-11774
▁enchanted	-11775
▁evolution	-11776
▁extracted	-11777
▁fastening	-11778
▁finishing	-11779
▁frequency	-11780
▁geography	-11781
▁geometric	-11782
▁hesitated	-11783
▁histories	-11784
▁inference	-11785
▁ingenious	-11786
▁interfere	-11787
▁languidly	-11788
▁libraries	-11789
▁merciless	-11790
▁mushrooms	-11791
▁oppressed	-11792
▁patiently	-11793
▁perplexed	-11794
▁phenomena	-11795
▁physician	-11796
▁posterity	-11797
▁practised	-11798
▁precision	-11799
▁remainder	-11800
▁simpleton	-11801
▁stability	-11802
▁strangled	-11803
▁struggled	-11804
▁talkative	-11805
▁threshold	-11806
▁troubling	-11807
▁vestibule	-11808
▁Afterwards	-11809
▁Government	-11810
▁Leontyitch	-11811
▁Ludwigovna	-11812
▁Merzlyakov	-11813
▁Pestryakov	-11814
▁Providence	-11815
▁Semyonitch	-11816
▁acquainted	-11817
▁advantages	-11818
▁approached	-11819
▁articulate	-11820
▁attempting	-11821
▁attendants	-11822
▁bitterness	-11823
▁complaints	-11824
▁comprehend	-11825
▁confounded	-11826
▁continuing	-11827
▁convulsive	-11828
▁decolonial	-11829
▁despairing	-11830
▁discussing	-11831
▁disorderly	-11832
▁drowsiness	-11833
▁efficiency	-11834
▁encouraged	-11835
▁faithfully	-11836
▁fathomless	-11837
▁heightened	-11838
▁helplessly	-11839
▁impressive	-11840
▁invariably	-11841
▁irrelevant	-11842
▁lustreless	-11843
▁newspapers	-11844
▁pernicious	-11845
▁phenomenon	-11846
▁preserving	-11847
▁profession	-11848
▁properties	-11849
▁reproaches	-11850
▁resentment	-11851
▁scratching	-11852
▁slumbering	-11853
▁strategies	-11854
▁threatened	-11855
▁tremendous	-11856
▁unfamiliar	-11857
Illustration	-11858
▁Alexyevitch	-11859
▁Zaharovitch	-11860
▁composition	-11861
▁conjectured	-11862
▁constraints	-11863
▁constructed	-11864
▁defenceless	-11865
▁differences	-11866
▁foolishness	-11867
▁illustrated	-11868
▁individuals	-11869
▁institution	-11870
▁interpreted	-11871
▁investigate	-11872
▁perpetually	-11873
▁picturesque	-11874
▁pluriversal	-11875
▁preparation	-11876
▁questioning	-11877
▁sensitivity	-11878
▁superfluous	-11879
▁Consequently	-11880
▁affectionate	-11881
▁arrangements	-11882
▁bewilderment	-11883
▁conveniently	-11884
▁conventional	-11885
▁interrupting	-11886
▁measurements	-11887
▁reminiscence	-11888
▁respectively	-11889
▁specifically	-11890
▁sufficiently	-11891
▁suspiciously	-11892
▁thoughtfully	-11893
▁triumphantly	-11894
▁communication	-11895
▁comprehensive	-11896
▁condescending	-11897
▁indescribable	-11898
▁interpolation	-11899
▁SceneCompleter	-11900
1]	-11901
43	-11902
6]	-11903
85	-11904
BD	-11905
CV	-11906
Dr	-11907
EL	-11908
Le	-11909
PT	-11910
kn	-11911
rm	-11912
ti	-11913
!'"	-11914
.'"	-11915
3),	-11916
5),	-11917
6),	-11918
ERE	-11919
Mer	-11920
Was	-11921
Xiv	-11922
abb	-11923
adv	-11924
afe	-11925
ani	-11926
ava	-11927
aya	-11928
bow	-11929
eff	-11930
elp	-11931
enz	-11932
fig	-11933
gaf	-11934
gan	-11935
gra	-11936
hib	-11937
lim	-11938
lit	-11939
mun	-11940
oid	-11941
ola	-11942
olf	-11943
oty	-11944
oys	-11945
rey	-11946
sev	-11947
sts	-11948
vag	-11949
yss	-11950
zer	-11951
’--	-11952
▁15	-11953
▁2,	-11954
▁Id	-11955
▁XI	-11956
Dear	-11957
Olya	-11958
abil	-11959
afed	-11960
alog	-11961
asya	-11962
bell	-11963
bris	-11964
brow	-11965
chal	-11966
chin	-11967
cone	-11968
cons	-11969
ders	-11970
dist	-11971
door	-11972
eded	-11973
emon	-11974
eval	-11975
ffic	-11976
gara	-11977
iend	-11978
igen	-11979
ighs	-11980
ilya	-11981
inci	-11982
ippe	-11983
isse	-11984
look	-11985
mann	-11986
mock	-11987
nace	-11988
omer	-11989
oned	-11990
only	-11991
owry	-11992
ppet	-11993
rels	-11994
riff	-11995
tery	-11996
tide	-11997
ttes	-11998
uate	-11999
ubby	-12000
ullo	-12001
ulls	-12002
ummy	-12003
vous	-12004
ympt	-12005
▁197	-12006
▁Age	-12007
▁Alt	-12008
▁Ann	-12009
▁Ant	-12010
▁Ask	-12011
▁CAR	-12012
▁Dra	-12013
▁Fut	-12014
▁Gal	-12015
▁Hol	-12016
▁Ide	-12017
▁Lim	-12018
▁Mal	-12019
▁Pat	-12020
▁Ped	-12021
▁Rev	-12022
▁Sla	-12023
▁Und	-12024
▁Zap	-12025
▁[10	-12026
▁alb	-12027
▁ber	-12028
▁bru	-12029
▁buz	-12030
▁bye	-12031
▁dun	-12032
▁etc	-12033
▁fog	-12034
▁hug	-12035
▁jam	-12036
▁jar	-12037
▁lon	-12038
▁nib	-12039
▁nic	-12040
▁nig	-12041
▁nom	-12042
▁oce	-12043
▁owe	-12044
▁pad	-12045
▁paw	-12046
▁pes	-12047
▁pim	-12048
▁sus	-12049
▁toy	-12050
▁vot	-12051
aders	-12052
aints	-12053
aired	-12054
alese	-12055
arian	-12056
ariat	-12057
asset	-12058
balls	-12059
berry	-12060
books	-12061
brown	-12062
ckery	-12063
color	-12064
ended	-12065
ennes	-12066
etary	-12067
heads	-12068
igate	-12069
itful	-12070
level	-12071
oikin	-12072
orter	-12073
oston	-12074
plend	-12075
pport	-12076
rable	-12077
reast	-12078
ridge	-12079
smith	-12080
words	-12081
▁Agaf	-12082
▁Ages	-12083
▁Alps	-12084
▁Appe	-12085
▁Beat	-12086
▁Bene	-12087
▁Blue	-12088
▁Char	-12089
▁Corn	-12090
▁Dist	-12091
▁Dust	-12092
▁Fact	-12093
▁Fear	-12094
▁Flor	-12095
▁Hold	-12096
▁Joys	-12097
▁Mach	-12098
▁Mary	-12099
▁Must	-12100
▁Orph	-12101
▁Penn	-12102
▁Poet	-12103
▁Rese	-12104
▁Star	-12105
▁Stat	-12106
▁Stud	-12107
▁Vlad	-12108
▁Walt	-12109
▁anat	-12110
▁apat	-12111
▁balk	-12112
▁bang	-12113
▁bays	-12114
▁belf	-12115
▁bomb	-12116
▁boom	-12117
▁bred	-12118
▁cage	-12119
▁chir	-12120
▁chop	-12121
▁clin	-12122
▁dang	-12123
▁desk	-12124
▁eval	-12125
▁exal	-12126
▁fero	-12127
▁gulf	-12128
▁heel	-12129
▁hoar	-12130
▁intr	-12131
▁jest	-12132
▁jing	-12133
▁lame	-12134
▁lisp	-12135
▁mete	-12136
▁mice	-12137
▁murk	-12138
▁nuis	-12139
▁omin	-12140
▁oxen	-12141
▁pegs	-12142
▁peop	-12143
▁plot	-12144
▁rebu	-12145
▁rein	-12146
▁scim	-12147
▁sext	-12148
▁slim	-12149
▁snig	-12150
▁sped	-12151
▁stim	-12152
▁sult	-12153
▁tack	-12154
▁trot	-12155
▁uncl	-12156
▁unqu	-12157
▁vehe	-12158
▁whil	-12159
▁womb	-12160
Enough	-12161
advant	-12162
astern	-12163
bodied	-12164
boding	-12165
entric	-12166
horses	-12167
icolas	-12168
ignant	-12169
illage	-12170
itably	-12171
itious	-12172
legged	-12173
office	-12174
opolit	-12175
orable	-12176
ossess	-12177
otions	-12178
pocket	-12179
shaven	-12180
should	-12181
stream	-12182
things	-12183
twenty	-12184
uating	-12185
uccess	-12186
ulness	-12187
ulties	-12188
unches	-12189
urator	-12190
▁2021;	-12191
▁2023;	-12192
▁Allah	-12193
▁Alone	-12194
▁Appro	-12195
▁Arist	-12196
▁Bloom	-12197
▁Board	-12198
▁Bruni	-12199
▁Drink	-12200
▁Green	-12201
▁Haply	-12202
▁Haven	-12203
▁Inter	-12204
▁Maybe	-12205
▁Might	-12206
▁Molok	-12207
▁Paris	-12208
▁Songs	-12209
▁Stand	-12210
▁Super	-12211
▁Yanke	-12212
▁Yulia	-12213
▁abyss	-12214
▁accus	-12215
▁affor	-12216
▁alert	-12217
▁arXiv	-12218
▁artif	-12219
▁asset	-12220
▁babes	-12221
▁basin	-12222
▁broom	-12223
▁cares	-12224
▁clank	-12225
▁clime	-12226
▁crags	-12227
▁dames	-12228
▁dares	-12229
▁decis	-12230
▁deser	-12231
▁divor	-12232
▁dowry	-12233
▁drest	-12234
▁embro	-12235
▁ensla	-12236
▁exile	-12237
▁favor	-12238
▁fowls	-12239
▁gains	-12240
▁games	-12241
▁gasps	-12242
▁gazes	-12243
▁glare	-12244
▁goose	-12245
▁grapp	-12246
▁handw	-12247
▁hedge	-12248
▁inequ	-12249
▁lance	-12250
▁lanes	-12251
▁leaps	-12252
▁lifts	-12253
▁lusty	-12254
▁masts	-12255
▁metal	-12256
▁miner	-12257
▁minim	-12258
▁outst	-12259
▁owned	-12260
▁physi	-12261
▁pinna	-12262
▁pound	-12263
▁raced	-12264
▁reced	-12265
▁rhyme	-12266
▁sauce	-12267
▁steer	-12268
▁subsc	-12269
▁suspe	-12270
▁swung	-12271
▁trill	-12272
▁vista	-12273
▁vivid	-12274
▁wires	-12275
▁worsh	-12276
▁wrapt	-12277
cellent	-12278
chamber	-12279
chestra	-12280
iceless	-12281
iegated	-12282
iminary	-12283
ivities	-12284
legraph	-12285
mitting	-12286
osities	-12287
otesque	-12288
unction	-12289
usively	-12290
▁Almost	-12291
▁Bishop	-12292
▁Boston	-12293
▁Donets	-12294
▁Forget	-12295
▁Gather	-12296
▁Jordan	-12297
▁Kanada	-12298
▁Modern	-12299
▁Philip	-12300
▁Silent	-12301
▁Tennes	-12302
▁Twenty	-12303
▁Wednes	-12304
▁Wonder	-12305
▁abomin	-12306
▁altars	-12307
▁argued	-12308
▁asympt	-12309
▁balcon	-12310
▁beards	-12311
▁bestow	-12312
▁borrow	-12313
▁bosoms	-12314
▁bowels	-12315
▁cantic	-12316
▁capric	-12317
▁cellar	-12318
▁consec	-12319
▁creeds	-12320
▁darker	-12321
▁debris	-12322
▁deform	-12323
▁devout	-12324
▁dishon	-12325
▁dreamt	-12326
▁eagles	-12327
▁envied	-12328
▁expose	-12329
▁fiancé	-12330
▁gestic	-12331
▁grapes	-12332
▁groans	-12333
▁hailed	-12334
▁hauled	-12335
▁hinted	-12336
▁infant	-12337
▁infirm	-12338
▁jocund	-12339
▁linger	-12340
▁lodged	-12341
▁neural	-12342
▁nimble	-12343
▁nought	-12344
▁oceans	-12345
▁offset	-12346
▁oracle	-12347
▁propri	-12348
▁prostr	-12349
▁quench	-12350
▁reared	-12351
▁reefer	-12352
▁restra	-12353
▁retrie	-12354
▁rushes	-12355
▁safely	-12356
▁scanty	-12357
▁sentry	-12358
▁shaved	-12359
▁spaces	-12360
▁sparse	-12361
▁spider	-12362
▁stings	-12363
▁stored	-12364
▁strife	-12365
▁sturdy	-12366
▁tracks	-12367
▁tremor	-12368
▁tribes	-12369
▁tumult	-12370
▁unfast	-12371
▁unfold	-12372
▁unhapp	-12373
▁unlock	-12374
▁untold	-12375
▁upside	-12376
▁viewed	-12377
▁visual	-12378
▁writer	-12379
▁wrongs	-12380
▁youths	-12381
Nonsense	-12382
appropri	-12383
assadors	-12384
ceivable	-12385
children	-12386
iciously	-12387
imension	-12388
izations	-12389
ongruous	-12390
ribution	-12391
umerable	-12392
▁Beneath	-12393
▁Circuit	-12394
▁Digital	-12395
▁Forgive	-12396
▁Liberty	-12397
▁Passing	-12398
▁Passion	-12399
▁Persian	-12400
▁Swedish	-12401
▁Terehov	-12402
▁Turning	-12403
▁adopted	-12404
▁affably	-12405
▁artists	-12406
▁banging	-12407
▁bargain	-12408
▁barrels	-12409
▁battery	-12410
▁bearded	-12411
▁beggary	-12412
▁blackgu	-12413
▁blushed	-12414
▁butcher	-12415
▁climate	-12416
▁cobbler	-12417
▁columns	-12418
▁conspic	-12419
▁conspir	-12420
▁cracked	-12421
▁dancers	-12422
▁defined	-12423
▁denying	-12424
▁drowned	-12425
▁dynamic	-12426
▁enlight	-12427
▁equival	-12428
▁essence	-12429
▁explore	-12430
▁favours	-12431
▁foremen	-12432
▁grassho	-12433
▁grating	-12434
▁hostess	-12435
▁insepar	-12436
▁judging	-12437
▁kindred	-12438
▁liquors	-12439
▁monolog	-12440
▁nonchal	-12441
▁ominous	-12442
▁omitted	-12443
▁pageant	-12444
▁pausing	-12445
▁perturb	-12446
▁playful	-12447
▁praises	-12448
▁pretext	-12449
▁pyramid	-12450
▁quicker	-12451
▁reaches	-12452
▁readers	-12453
▁records	-12454
▁renewed	-12455
▁reprodu	-12456
▁requiem	-12457
▁resumed	-12458
▁rocking	-12459
▁rousing	-12460
▁sectors	-12461
▁sepulch	-12462
▁shifted	-12463
▁shudder	-12464
▁sparrow	-12465
▁spreads	-12466
▁taverns	-12467
▁thicker	-12468
▁threats	-12469
▁throats	-12470
▁traffic	-12471
▁traject	-12472
▁trodden	-12473
▁typical	-12474
▁tyranny	-12475
▁vinegar	-12476
▁whereas	-12477
▁winking	-12478
certainty	-12479
▁Children	-12480
▁Egyptian	-12481
▁Gerassim	-12482
▁Moiseika	-12483
▁Osipitch	-12484
▁Pavlovna	-12485
▁Polzuhin	-12486
▁Research	-12487
▁Thoughts	-12488
▁abnormal	-12489
▁applying	-12490
▁arrogant	-12491
▁assigned	-12492
▁avoiding	-12493
▁bachelor	-12494
▁barracks	-12495
▁battered	-12496
▁bequeath	-12497
▁betrayed	-12498
▁billiard	-12499
▁boundary	-12500
▁breeding	-12501
▁brighter	-12502
▁candlest	-12503
▁churches	-12504
▁cleverly	-12505
▁clusters	-12506
▁coloured	-12507
▁contexts	-12508
▁counsell	-12509
▁creaking	-12510
▁crockery	-12511
▁decanter	-12512
▁deformed	-12513
▁depraved	-12514
▁descends	-12515
▁deserved	-12516
▁detected	-12517
▁divinity	-12518
▁earliest	-12519
▁ensemble	-12520
▁explicit	-12521
▁extravag	-12522
▁eyesight	-12523
▁flattery	-12524
▁generals	-12525
▁generate	-12526
▁gladness	-12527
▁grateful	-12528
▁groaning	-12529
▁happiest	-12530
▁husbands	-12531
▁illusion	-12532
▁infamous	-12533
▁interval	-12534
▁kingdoms	-12535
▁lengthen	-12536
▁manifold	-12537
▁mechanic	-12538
▁mingling	-12539
▁networks	-12540
▁nuisance	-12541
▁obedient	-12542
▁orthodox	-12543
▁outraged	-12544
▁overstep	-12545
▁partners	-12546
▁pavilion	-12547
▁perfumes	-12548
▁probable	-12549
▁projects	-12550
▁referred	-12551
▁reflects	-12552
▁requires	-12553
▁scimitar	-12554
▁sickness	-12555
▁skeleton	-12556
▁spacious	-12557
▁stagnant	-12558
▁straying	-12559
▁sunburnt	-12560
▁syllable	-12561
▁tendency	-12562
▁twitched	-12563
▁unlocked	-12564
▁victuals	-12565
▁virtuous	-12566
opolitical	-12567
raordinary	-12568
▁Alexander	-12569
▁Education	-12570
▁Investors	-12571
▁Orphalese	-12572
▁Returning	-12573
▁Tennessee	-12574
▁Wandering	-12575
▁aggrieved	-12576
▁amusement	-12577
▁ancestors	-12578
▁bloodshed	-12579
▁campaigns	-12580
▁cathedral	-12581
▁certainty	-12582
▁clambered	-12583
▁classical	-12584
▁clutching	-12585
▁comforted	-12586
▁composure	-12587
▁computing	-12588
▁connected	-12589
▁conqueror	-12590
▁continues	-12591
▁corrupted	-12592
▁cowardice	-12593
▁customers	-12594
▁discussed	-12595
▁emptiness	-12596
▁endlessly	-12597
▁entangled	-12598
▁estimated	-12599
▁eyelashes	-12600
▁faculties	-12601
▁ferocious	-12602
▁fluttered	-12603
▁formation	-12604
▁frivolous	-12605
▁governing	-12606
▁grotesque	-12607
▁humankind	-12608
▁innkeeper	-12609
▁intensely	-12610
▁intercept	-12611
▁listeners	-12612
▁literally	-12613
▁loadstone	-12614
▁melodious	-12615
▁musicians	-12616
▁obstacles	-12617
▁offspring	-12618
▁orchestra	-12619
▁prejudice	-12620
▁prominent	-12621
▁pronounce	-12622
▁proposing	-12623
▁protocols	-12624
▁provinces	-12625
▁realities	-12626
▁reception	-12627
▁recommend	-12628
▁regarding	-12629
▁regretted	-12630
▁religions	-12631
▁retreated	-12632
▁seventeen	-12633
▁snatching	-12634
▁splendour	-12635
▁sprinkled	-12636
▁terrified	-12637
▁transient	-12638
▁vulgarity	-12639
▁wherewith	-12640
▁wineglass	-12641
▁Fyodoritch	-12642
▁Sergeyitch	-12643
▁Stepanovna	-12644
▁adventures	-12645
▁apartments	-12646
▁asymptotic	-12647
▁attraction	-12648
▁benevolent	-12649
▁cheerfully	-12650
▁cigarettes	-12651
▁concluding	-12652
▁developing	-12653
▁entreaties	-12654
▁generosity	-12655
▁glistening	-12656
▁indicating	-12657
▁meditating	-12658
▁moustaches	-12659
▁numberless	-12660
▁persistent	-12661
▁prejudices	-12662
▁procurator	-12663
▁prosperous	-12664
▁questioned	-12665
▁regardless	-12666
▁resembling	-12667
▁responsive	-12668
▁spectators	-12669
▁splendidly	-12670
▁stealthily	-12671
▁submissive	-12672
▁suggestion	-12673
▁transition	-12674
▁unbuttoned	-12675
▁undertaken	-12676
▁variegated	-12677
▁vouchsafed	-12678
▁wrathfully	-12679
▁Grigoryevna	-12680
▁Proceedings	-12681
▁arrangement	-12682
▁association	-12683
▁brotherhood	-12684
▁conclusions	-12685
▁consolation	-12686
▁drunkenness	-12687
▁handwriting	-12688
▁incorporate	-12689
▁interaction	-12690
▁pluralistic	-12691
▁preliminary	-12692
▁preoccupied	-12693
▁quarrelling	-12694
▁represented	-12695
▁threatening	-12696
▁unconcerned	-12697
▁wonderfully	-12698
▁aristocratic	-12699
▁civilization	-12700
▁concentrated	-12701
▁contemporary	-12702
▁emphatically	-12703
▁examinations	-12704
▁helplessness	-12705
▁impressively	-12706
▁intelligible	-12707
▁optimization	-12708
▁persistently	-12709
▁psychologist	-12710
▁resurrection	-12711
▁unmistakable	-12712
▁establishment	-12713
▁inquisitively	-12714
▁psychological	-12715
▁significantly	-12716
▁considerations	-12717
";	-12718
-1	-12719
.7	-12720
0,	-12721
0.	-12722
7.	-12723
7/	-12724
99	-12725
Ap	-12726
Ar	-12727
EV	-12728
Hm	-12729
Or	-12730
PL	-12731
UN	-12732
Ye	-12733
hi	-12734
mo	-12735
wy	-12736
ˆ(	-12737
▁′	-12738
ASS	-12739
Bah	-12740
Foo	-12741
Hon	-12742
Mar	-12743
OUN	-12744
Pol	-12745
ald	-12746
ana	-12747
cal	-12748
cap	-12749
cer	-12750
cra	-12751
eer	-12752
eng	-12753
ext	-12754
got	-12755
hao	-12756
hel	-12757
ios	-12758
jac	-12759
jah	-12760
las	-12761
low	-12762
map	-12763
obe	-12764
ois	-12765
oph	-12766
osy	-12767
pit	-12768
run	-12769
sim	-12770
sub	-12771
tes	-12772
thr	-12773
voc	-12774
▁00	-12775
▁13	-12776
▁2.	-12777
▁23	-12778
▁3.	-12779
▁Co	-12780
▁Hu	-12781
▁Hy	-12782
▁IX	-12783
▁La	-12784
▁RG	-12785
▁Wr	-12786
▁[5	-12787
▁ns	-12788
Even	-12789
Help	-12790
IDAS	-12791
Papa	-12792
Such	-12793
Will	-12794
adow	-12795
alov	-12796
asms	-12797
asts	-12798
aten	-12799
aver	-12800
azed	-12801
bend	-12802
blem	-12803
brew	-12804
cers	-12805
cled	-12806
conf	-12807
duct	-12808
emar	-12809
ffaw	-12810
good	-12811
gram	-12812
have	-12813
iage	-12814
ials	-12815
ieft	-12816
ieur	-12817
ifix	-12818
iser	-12819
ithe	-12820
ithm	-12821
kens	-12822
luck	-12823
nage	-12824
nish	-12825
olet	-12826
olic	-12827
orer	-12828
part	-12829
pool	-12830
pres	-12831
ront	-12832
sons	-12833
spir	-12834
tail	-12835
take	-12836
tled	-12837
tock	-12838
uffs	-12839
uity	-12840
ulus	-12841
umin	-12842
vech	-12843
wixt	-12844
year	-12845
▁(2)	-12846
▁186	-12847
▁199	-12848
▁Alb	-12849
▁Alf	-12850
▁Bak	-12851
▁Ban	-12852
▁Bol	-12853
▁Cor	-12854
▁Det	-12855
▁Emb	-12856
▁Env	-12857
▁Ere	-12858
▁Exp	-12859
▁Hey	-12860
▁Imm	-12861
▁Jer	-12862
▁Kaz	-12863
▁Mid	-12864
▁Nia	-12865
▁Opt	-12866
▁PET	-12867
▁Sam	-12868
▁Tro	-12869
▁VIX	-12870
▁VOY	-12871
▁Vah	-12872
▁Val	-12873
▁blo	-12874
▁cyl	-12875
▁ecc	-12876
▁ego	-12877
▁hip	-12878
▁idi	-12879
▁nep	-12880
▁ont	-12881
▁piv	-12882
▁riv	-12883
▁rug	-12884
▁som	-12885
▁tas	-12886
▁tol	-12887
▁unh	-12888
▁urn	-12889
/10.1	-12890
Nikol	-12891
Varka	-12892
aphys	-12893
apino	-12894
aples	-12895
astly	-12896
chain	-12897
ennel	-12898
ensed	-12899
ermol	-12900
eying	-12901
gowns	-12902
heart	-12903
icted	-12904
immed	-12905
inges	-12906
inois	-12907
itman	-12908
journ	-12909
kempt	-12910
kered	-12911
laced	-12912
lived	-12913
ogene	-12914
orado	-12915
psies	-12916
raced	-12917
ropos	-12918
score	-12919
those	-12920
urdle	-12921
young	-12922
▁2025	-12923
▁Adam	-12924
▁Arab	-12925
▁Athe	-12926
▁Blow	-12927
▁Dece	-12928
▁Desp	-12929
▁Fair	-12930
▁Fool	-12931
▁GEPU	-12932
▁Goth	-12933
▁Hath	-12934
▁Kiss	-12935
▁Ling	-12936
▁Mars	-12937
▁Part	-12938
▁Petr	-12939
▁Pict	-12940
▁Publ	-12941
▁Read	-12942
▁Rest	-12943
▁Rich	-12944
▁Seas	-12945
▁Sink	-12946
▁Soci	-12947
▁Stop	-12948
▁Tche	-12949
▁Test	-12950
▁Tsar	-12951
▁Walk	-12952
▁Wasn	-12953
▁XIII	-12954
▁bolt	-12955
▁burd	-12956
▁cane	-12957
▁carc	-12958
▁carp	-12959
▁carr	-12960
▁clap	-12961
▁cosm	-12962
▁dand	-12963
▁dens	-12964
▁dole	-12965
▁dupl	-12966
▁ejac	-12967
▁fade	-12968
▁flog	-12969
▁fork	-12970
▁frog	-12971
▁gigg	-12972
▁gild	-12973
▁glor	-12974
▁grav	-12975
▁gymn	-12976
▁hens	-12977
▁hire	-12978
▁hiss	-12979
▁impe	-12980
▁jaws	-12981
▁lark	-12982
▁lave	-12983
▁lore	-12984
▁lump	-12985
▁mend	-12986
▁null	-12987
▁orbs	-12988
▁owes	-12989
▁padd	-12990
▁panc	-12991
▁peak	-12992
▁pent	-12993
▁pies	-12994
▁pite	-12995
▁plum	-12996
▁pomp	-12997
▁rece	-12998
▁rect	-12999
▁ribs	-13000
▁ripe	-13001
▁scor	-13002
▁sire	-13003
▁site	-13004
▁soph	-13005
▁spec	-13006
▁spit	-13007
▁spur	-13008
▁tele	-13009
▁tool	-13010
▁tren	-13011
▁unaw	-13012
▁unbe	-13013
▁ungr	-13014
▁unsh	-13015
▁unus	-13016
▁unve	-13017
▁walt	-13018
▁wipe	-13019
▁yore	-13020
Really	-13021
aleyev	-13022
amitch	-13023
antsev	-13024
atches	-13025
aucher	-13026
avings	-13027
clouds	-13028
enance	-13029
ervant	-13030
estics	-13031
gainst	-13032
giving	-13033
ifully	-13034
illity	-13035
inders	-13036
inence	-13037
ishers	-13038
istory	-13039
mighty	-13040
othing	-13041
rament	-13042
singer	-13043
struck	-13044
teenth	-13045
thirty	-13046
uality	-13047
ushkov	-13048
verest	-13049
▁Being	-13050
▁Clear	-13051
▁Conqu	-13052
▁Early	-13053
▁Index	-13054
▁Lippe	-13055
▁Louis	-13056
▁Luise	-13057
▁Nazar	-13058
▁Novel	-13059
▁Power	-13060
▁Pride	-13061
▁Smith	-13062
▁Sweet	-13063
▁Swift	-13064
▁Tatar	-13065
▁Third	-13066
▁Vasya	-13067
▁Yahoo	-13068
▁abode	-13069
▁abund	-13070
▁acres	-13071
▁advoc	-13072
▁agric	-13073
▁album	-13074
▁allev	-13075
▁arena	-13076
▁bleak	-13077
▁blend	-13078
▁blest	-13079
▁catar	-13080
▁chaos	-13081
▁check	-13082
▁chuck	-13083
▁cords	-13084
▁cryst	-13085
▁depos	-13086
▁dined	-13087
▁dirge	-13088
▁dusky	-13089
▁emerg	-13090
▁evils	-13091
▁excel	-13092
▁faire	-13093
▁farce	-13094
▁fewer	-13095
▁fiend	-13096
▁fluff	-13097
▁flust	-13098
▁fraud	-13099
▁frogs	-13100
▁funds	-13101
▁giver	-13102
▁glide	-13103
▁hasty	-13104
▁horns	-13105
▁insin	-13106
▁intol	-13107
▁inure	-13108
▁irony	-13109
▁knaps	-13110
▁lever	-13111
▁liken	-13112
▁links	-13113
▁manus	-13114
▁moans	-13115
▁mocks	-13116
▁mused	-13117
▁nests	-13118
▁oaths	-13119
▁palms	-13120
▁peril	-13121
▁pinch	-13122
▁plane	-13123
▁plank	-13124
▁prime	-13125
▁punct	-13126
▁redsh	-13127
▁reple	-13128
▁rests	-13129
▁ridge	-13130
▁rocky	-13131
▁ropes	-13132
▁route	-13133
▁shove	-13134
▁sixth	-13135
▁snows	-13136
▁spear	-13137
▁sport	-13138
▁stamm	-13139
▁stems	-13140
▁tombs	-13141
▁trash	-13142
▁trink	-13143
▁twain	-13144
▁undef	-13145
▁uninv	-13146
▁vault	-13147
▁wards	-13148
▁wilds	-13149
▁wiser	-13150
▁worms	-13151
achment	-13152
angible	-13153
animate	-13154
entieth	-13155
fitting	-13156
flowing	-13157
idently	-13158
ighting	-13159
illions	-13160
imately	-13161
istical	-13162
married	-13163
oldemar	-13164
ringing	-13165
ription	-13166
ripture	-13167
speople	-13168
vechsel	-13169
▁Africa	-13170
▁Greeks	-13171
▁Harkov	-13172
▁Hebrew	-13173
▁Intern	-13174
▁Jewess	-13175
▁School	-13176
▁Second	-13177
▁Sounds	-13178
▁Spring	-13179
▁Stands	-13180
▁VOYAGE	-13181
▁Vedeny	-13182
▁Wouldn	-13183
▁Yankee	-13184
▁Yermol	-13185
▁abused	-13186
▁acting	-13187
▁adding	-13188
▁ankles	-13189
▁apathy	-13190
▁arched	-13191
▁arithm	-13192
▁arming	-13193
▁august	-13194
▁babble	-13195
▁belfry	-13196
▁bother	-13197
▁breach	-13198
▁burned	-13199
▁cheese	-13200
▁cherry	-13201
▁chieft	-13202
▁chisel	-13203
▁chords	-13204
▁circul	-13205
▁cliffs	-13206
▁climes	-13207
▁combed	-13208
▁curses	-13209
▁denied	-13210
▁deploy	-13211
▁detain	-13212
▁disarm	-13213
▁eluded	-13214
▁errors	-13215
▁exting	-13216
▁feudal	-13217
▁fiddle	-13218
▁fidget	-13219
▁flaxen	-13220
▁floats	-13221
▁gender	-13222
▁glowed	-13223
▁gospel	-13224
▁guffaw	-13225
▁gutter	-13226
▁halted	-13227
▁hamlet	-13228
▁haunts	-13229
▁heaped	-13230
▁heaves	-13231
▁hermit	-13232
▁indisp	-13233
▁insect	-13234
▁intric	-13235
▁issues	-13236
▁joiner	-13237
▁landed	-13238
▁lenity	-13239
▁limpid	-13240
▁loosen	-13241
▁magnet	-13242
▁mantle	-13243
▁meekly	-13244
▁metric	-13245
▁monkey	-13246
▁muddle	-13247
▁muslin	-13248
▁neglig	-13249
▁nicely	-13250
▁ninety	-13251
▁nobles	-13252
▁novels	-13253
▁offend	-13254
▁organs	-13255
▁pallid	-13256
▁pallor	-13257
▁pierce	-13258
▁placid	-13259
▁poplar	-13260
▁pranks	-13261
▁primal	-13262
▁prohib	-13263
▁promul	-13264
▁purely	-13265
▁raving	-13266
▁regist	-13267
▁relics	-13268
▁relies	-13269
▁remedy	-13270
▁richer	-13271
▁rotten	-13272
▁saloon	-13273
▁senate	-13274
▁sentin	-13275
▁shrink	-13276
▁sipped	-13277
▁sombre	-13278
▁spends	-13279
▁spiral	-13280
▁spoons	-13281
▁starry	-13282
▁statue	-13283
▁strata	-13284
▁strewn	-13285
▁stumps	-13286
▁sultry	-13287
▁swarms	-13288
▁sweets	-13289
▁termin	-13290
▁thrill	-13291
▁tokens	-13292
▁tragic	-13293
▁unloos	-13294
▁velvet	-13295
▁victor	-13296
▁weakly	-13297
▁weighs	-13298
▁whatso	-13299
▁wisest	-13300
▁wrecks	-13301
ervative	-13302
missible	-13303
modeling	-13304
▁Dushkin	-13305
▁Florida	-13306
▁Germany	-13307
▁Holland	-13308
▁Imagine	-13309
▁Lazarus	-13310
▁Leaving	-13311
▁Mihailo	-13312
▁Natasha	-13313
▁Niagara	-13314
▁Optimov	-13315
▁Putting	-13316
▁Redriff	-13317
▁Sinkino	-13318
▁Systems	-13319
▁Whitman	-13320
▁afflict	-13321
▁altered	-13322
▁amongst	-13323
▁anybody	-13324
▁apropos	-13325
▁banners	-13326
▁barrier	-13327
▁bashful	-13328
▁blended	-13329
▁blossom	-13330
▁bondage	-13331
▁bullets	-13332
▁buzzing	-13333
▁channel	-13334
▁checked	-13335
▁chicken	-13336
▁choking	-13337
▁clatter	-13338
▁cluster	-13339
▁concert	-13340
▁constit	-13341
▁contest	-13342
▁cypress	-13343
▁decency	-13344
▁dictate	-13345
▁doubted	-13346
▁eminent	-13347
▁exalted	-13348
▁facades	-13349
▁falsity	-13350
▁fatigue	-13351
▁festive	-13352
▁foliage	-13353
▁forcing	-13354
▁forgave	-13355
▁forgets	-13356
▁fulness	-13357
▁garment	-13358
▁gliding	-13359
▁glisten	-13360
▁glitter	-13361
▁glories	-13362
▁gravely	-13363
▁grieved	-13364
▁hammers	-13365
▁hammock	-13366
▁heavier	-13367
▁heights	-13368
▁horrors	-13369
▁idiotic	-13370
▁initial	-13371
▁insight	-13372
▁interop	-13373
▁kindled	-13374
▁knowest	-13375
▁ladders	-13376
▁leaders	-13377
▁legends	-13378
▁listens	-13379
▁loftier	-13380
▁lurched	-13381
▁marshal	-13382
▁monthly	-13383
▁nodding	-13384
▁outrage	-13385
▁perused	-13386
▁plunder	-13387
▁poplars	-13388
▁popular	-13389
▁pounced	-13390
▁prelude	-13391
▁prisons	-13392
▁procure	-13393
▁rapport	-13394
▁rehears	-13395
▁reigned	-13396
▁revenge	-13397
▁revived	-13398
▁roaring	-13399
▁romance	-13400
▁rumours	-13401
▁sadness	-13402
▁shaping	-13403
▁sharing	-13404
▁shorter	-13405
▁silvery	-13406
▁simpler	-13407
▁skating	-13408
▁smacked	-13409
▁sniffed	-13410
▁soundly	-13411
▁squeeze	-13412
▁staples	-13413
▁strayed	-13414
▁strides	-13415
▁sucking	-13416
▁sundown	-13417
▁supplic	-13418
▁supreme	-13419
▁suscept	-13420
▁talents	-13421
▁thanked	-13422
▁thickly	-13423
▁thirsty	-13424
▁tossing	-13425
▁uncouth	-13426
▁unkempt	-13427
▁upright	-13428
▁varying	-13429
▁wagging	-13430
▁wishing	-13431
▁wrought	-13432
Gentlemen	-13433
abilistic	-13434
cifically	-13435
evolution	-13436
hetically	-13437
mentioned	-13438
▁Achilles	-13439
▁Colorado	-13440
▁Congress	-13441
▁December	-13442
▁Harlamov	-13443
▁Illinois	-13444
▁Japanese	-13445
▁Molokans	-13446
▁Russians	-13447
▁Standing	-13448
▁Vladimir	-13449
▁Zapoikin	-13450
▁advances	-13451
▁alarming	-13452
▁asserted	-13453
▁bayonets	-13454
▁casually	-13455
▁cherries	-13456
▁colonial	-13457
▁communic	-13458
▁consumer	-13459
▁countess	-13460
▁cracking	-13461
▁creeping	-13462
▁crucifix	-13463
▁cultural	-13464
▁delights	-13465
▁deprived	-13466
▁deputies	-13467
▁desiring	-13468
▁detailed	-13469
▁devilish	-13470
▁diffused	-13471
▁disposal	-13472
▁distract	-13473
▁document	-13474
▁doubtful	-13475
▁drowning	-13476
▁eastward	-13477
▁elegance	-13478
▁embodied	-13479
▁emphasis	-13480
▁endpoint	-13481
▁enormous	-13482
▁everyday	-13483
▁failures	-13484
▁feathers	-13485
▁flushing	-13486
▁fraction	-13487
▁gleaming	-13488
▁grinding	-13489
▁highness	-13490
▁highroad	-13491
▁humoured	-13492
▁indirect	-13493
▁involunt	-13494
▁journeys	-13495
▁joyously	-13496
▁kneeling	-13497
▁latitude	-13498
▁listener	-13499
▁listless	-13500
▁managing	-13501
▁mentally	-13502
▁mightier	-13503
▁miracles	-13504
▁moderate	-13505
▁monsters	-13506
▁murmured	-13507
▁paradigm	-13508
▁pastoral	-13509
▁pointmap	-13510
▁practise	-13511
▁pretence	-13512
▁purposes	-13513
▁quadrill	-13514
▁recesses	-13515
▁reducing	-13516
▁romantic	-13517
▁rudeness	-13518
▁samovars	-13519
▁settings	-13520
▁sluggish	-13521
▁smoothly	-13522
▁snapping	-13523
▁snorting	-13524
▁speeches	-13525
▁squealed	-13526
▁stamping	-13527
▁stumbled	-13528
▁sweetest	-13529
▁thankful	-13530
▁traveler	-13531
▁unwashed	-13532
▁warriors	-13533
▁workshop	-13534
▁yielding	-13535
imensional	-13536
outishness	-13537
uctuations	-13538
▁Bakaleyev	-13539
▁Evidently	-13540
▁Nazaritch	-13541
▁Platforms	-13542
▁Testament	-13543
▁admirable	-13544
▁apologize	-13545
▁appealing	-13546
▁attacking	-13547
▁attendant	-13548
▁clenching	-13549
▁cleverest	-13550
▁compelled	-13551
▁competent	-13552
▁complaint	-13553
▁completed	-13554
▁component	-13555
▁conceited	-13556
▁conquered	-13557
▁considers	-13558
▁consulted	-13559
▁contented	-13560
▁courteous	-13561
▁deathless	-13562
▁deception	-13563
▁decorated	-13564
▁deserving	-13565
▁determine	-13566
▁digestion	-13567
▁disadvant	-13568
▁discharge	-13569
▁domestics	-13570
▁eccentric	-13571
▁embedding	-13572
▁encourage	-13573
▁exercises	-13574
▁expedient	-13575
▁formalism	-13576
▁fountains	-13577
▁frightens	-13578
▁generated	-13579
▁hereafter	-13580
▁imaginary	-13581
▁imagining	-13582
▁immovable	-13583
▁inquiring	-13584
▁intending	-13585
▁intensity	-13586
▁labourers	-13587
▁lightcone	-13588
▁machinery	-13589
▁medicines	-13590
▁mightiest	-13591
▁monuments	-13592
▁multitude	-13593
▁notorious	-13594
▁overheard	-13595
▁partition	-13596
▁pavements	-13597
▁petitions	-13598
▁plaintive	-13599
▁plausible	-13600
▁portraits	-13601
▁privilege	-13602
▁prophetic	-13603
▁prostrate	-13604
▁remembers	-13605
▁resembled	-13606
▁revolving	-13607
▁rheumatic	-13608
▁separated	-13609
▁shuffling	-13610
▁smartness	-13611
▁spectacle	-13612
▁statement	-13613
▁strategic	-13614
▁suspended	-13615
▁telegraph	-13616
▁tolerable	-13617
▁trumpeter	-13618
▁typically	-13619
▁universes	-13620
▁vengeance	-13621
▁wholesome	-13622
▁Balnibarbi	-13623
▁Decolonial	-13624
▁Kirillovna	-13625
▁Matveyitch	-13626
▁Underneath	-13627
▁Vassitchka	-13628
▁abominable	-13629
▁affections	-13630
▁arithmetic	-13631
▁attracting	-13632
▁belongings	-13633
▁capricious	-13634
▁commercial	-13635
▁compliment	-13636
▁conquering	-13637
▁conversing	-13638
▁cultivated	-13639
▁degenerate	-13640
▁dependence	-13641
▁despicable	-13642
▁diminutive	-13643
▁discourses	-13644
▁displaying	-13645
▁diversions	-13646
▁extraction	-13647
▁flattering	-13648
▁fluttering	-13649
▁foreboding	-13650
▁frameworks	-13651
▁historical	-13652
▁humiliated	-13653
▁inappropri	-13654
▁interviews	-13655
▁knowledges	-13656
▁manuscript	-13657
▁occupation	-13658
▁positioned	-13659
▁postmaster	-13660
▁provincial	-13661
▁relatively	-13662
▁repentance	-13663
▁responding	-13664
▁retreating	-13665
▁revolution	-13666
▁structural	-13667
▁sustenance	-13668
▁throughout	-13669
▁transgress	-13670
▁twittering	-13671
▁unfastened	-13672
▁ungrateful	-13673
▁vegetables	-13674
▁vigorously	-13675
▁wilderness	-13676
omathematics	-13677
▁Vedenyapino	-13678
▁Yermolaitch	-13679
▁ambassadors	-13680
▁apparitions	-13681
▁appropriate	-13682
▁brandishing	-13683
▁calculation	-13684
▁challenging	-13685
▁complaining	-13686
▁conjunction	-13687
▁conspicuous	-13688
▁contrivance	-13689
▁curiosities	-13690
▁disgraceful	-13691
▁experiences	-13692
▁governments	-13693
▁incongruous	-13694
▁innumerable	-13695
▁integrating	-13696
▁magnanimous	-13697
▁maliciously	-13698
▁methodology	-13699
▁nightingale	-13700
▁obstinately	-13701
▁processions	-13702
▁progressive	-13703
▁raspberries	-13704
▁reconstruct	-13705
▁responsible	-13706
▁spluttering	-13707
▁sustainable	-13708
▁townspeople	-13709
▁transferred	-13710
▁Lippevechsel	-13711
▁Mihailovitch	-13712
▁Specifically	-13713
▁abstractions	-13714
▁calculations	-13715
▁commissariat	-13716
▁consequences	-13717
▁constitution	-13718
▁hesitatingly	-13719
▁implications	-13720
▁imprisonment	-13721
▁increasingly	-13722
▁inflationary	-13723
▁nevertheless	-13724
▁presentiment	-13725
▁tranquillity	-13726
▁comprehension	-13727
▁concentration	-13728
▁contemplation	-13729
▁justification	-13730
▁microservices	-13731
▁reproachfully	-13732
▁retrospective	-13733
▁epistemologies	-13734
▁unintelligible	-13735
▁characteristics	-13736
▁epistemological	-13737
.0	-13738
0]	-13739
22	-13740
4;	-13741
8,	-13742
89	-13743
:”	-13744
AM	-13745
De	-13746
ED	-13747
IC	-13748
IR	-13749
OM	-13750
PS	-13751
Sc	-13752
Vy	-13753
_?	-13754
eh	-13755
hu	-13756
wr	-13757
yb	-13758
▁̈	-13759
"--	-13760
Aha	-13761
IAD	-13762
ROM	-13763
Rod	-13764
TCH	-13765
aal	-13766
aar	-13767
aci	-13768
ago	-13769
ato	-13770
cab	-13771
cit	-13772
cto	-13773
cut	-13774
dev	-13775
ecd	-13776
eel	-13777
fut	-13778
gal	-13779
gol	-13780
ias	-13781
imm	-13782
iph	-13783
isl	-13784
lli	-13785
net	-13786
oup	-13787
pin	-13788
ruz	-13789
sit	-13790
ska	-13791
swe	-13792
tem	-13793
tur	-13794
uns	-13795
utt	-13796
vat	-13797
▁21	-13798
▁36	-13799
▁45	-13800
▁Ay	-13801
▁BS	-13802
▁Cy	-13803
▁DA	-13804
▁Du	-13805
▁Fo	-13806
▁IT	-13807
▁Ku	-13808
▁LI	-13809
▁Pu	-13810
▁Ra	-13811
▁TR	-13812
▁pi	-13813
▁zd	-13814
Appe	-13815
Hold	-13816
Holy	-13817
Make	-13818
Show	-13819
abet	-13820
addy	-13821
adel	-13822
adox	-13823
agre	-13824
aine	-13825
alin	-13826
alks	-13827
anda	-13828
arov	-13829
aton	-13830
aunt	-13831
beit	-13832
blue	-13833
clam	-13834
coll	-13835
elle	-13836
fold	-13837
goes	-13838
gonn	-13839
heng	-13840
hour	-13841
ideo	-13842
igil	-13843
imed	-13844
inya	-13845
ivou	-13846
keys	-13847
lvan	-13848
mast	-13849
meny	-13850
mith	-13851
moon	-13852
nial	-13853
oard	-13854
opic	-13855
oric	-13856
orig	-13857
oung	-13858
pire	-13859
pits	-13860
rics	-13861
rons	-13862
ropi	-13863
sour	-13864
suff	-13865
tops	-13866
uble	-13867
unci	-13868
unge	-13869
uper	-13870
upid	-13871
urif	-13872
usal	-13873
vent	-13874
vert	-13875
went	-13876
zens	-13877
▁(1)	-13878
▁187	-13879
▁AND	-13880
▁Ana	-13881
▁Arm	-13882
▁Ath	-13883
▁Bar	-13884
▁Ber	-13885
▁Bor	-13886
▁Dou	-13887
▁End	-13888
▁Fem	-13889
▁Fif	-13890
▁Fil	-13891
▁Jun	-13892
▁Kor	-13893
▁Lab	-13894
▁Les	-13895
▁Low	-13896
▁Mag	-13897
▁Nay	-13898
▁Nov	-13899
▁Pen	-13900
▁Sad	-13901
▁Sir	-13902
▁Spr	-13903
▁Tri	-13904
▁Unt	-13905
▁VAL	-13906
▁Won	-13907
▁XII	-13908
▁[12	-13909
▁aie	-13910
▁aye	-13911
▁bon	-13912
▁cot	-13913
▁cul	-13914
▁dru	-13915
▁err	-13916
▁eth	-13917
▁hap	-13918
▁jub	-13919
▁mix	-13920
▁poo	-13921
▁raz	-13922
▁rim	-13923
▁sie	-13924
▁tap	-13925
▁tru	-13926
▁vag	-13927
▁vil	-13928
▁vow	-13929
▁wad	-13930
!...”	-13931
?...”	-13932
Bravo	-13933
Could	-13934
ENTIN	-13935
Leave	-13936
Think	-13937
Under	-13938
Vyest	-13939
Write	-13940
ammar	-13941
ammer	-13942
amped	-13943
arsaw	-13944
asies	-13945
atics	-13946
attra	-13947
chesh	-13948
cohol	-13949
cuits	-13950
drawn	-13951
earth	-13952
elfth	-13953
eller	-13954
esson	-13955
etime	-13956
eting	-13957
fires	-13958
flies	-13959
frame	-13960
ghaal	-13961
giate	-13962
golam	-13963
green	-13964
hings	-13965
iants	-13966
iatic	-13967
icago	-13968
icket	-13969
ifice	-13970
incts	-13971
inter	-13972
isper	-13973
itals	-13974
joice	-13975
lined	-13976
never	-13977
oding	-13978
olent	-13979
ordin	-13980
osmos	-13981
ossal	-13982
penny	-13983
posts	-13984
raged	-13985
rangi	-13986
remon	-13987
repid	-13988
since	-13989
somet	-13990
still	-13991
tuner	-13992
turns	-13993
twere	-13994
uctor	-13995
udged	-13996
umble	-13997
urate	-13998
urban	-13999
wheat	-14000
yevna	-14001
▁(197	-14002
▁ANNA	-14003
▁Aren	-14004
▁Born	-14005
▁Caes	-14006
▁Cold	-14007
▁Comr	-14008
▁Coss	-14009
▁Crit	-14010
▁Deep	-14011
▁Diff	-14012
▁Frid	-14013
▁Gaul	-14014
▁Gods	-14015
▁Gull	-14016
▁Happ	-14017
▁Hard	-14018
▁Hear	-14019
▁Hind	-14020
▁Hush	-14021
▁Karl	-14022
▁Kent	-14023
▁Loud	-14024
▁Luby	-14025
▁Mass	-14026
▁Mich	-14027
▁Moor	-14028
▁Much	-14029
▁Mult	-14030
▁Octo	-14031
▁Oreg	-14032
▁Pray	-14033
▁Prom	-14034
▁Sail	-14035
▁Scar	-14036
▁Self	-14037
▁Show	-14038
▁Soft	-14039
▁Stra	-14040
▁Supp	-14041
▁Surr	-14042
▁Tart	-14043
▁Thom	-14044
▁Tula	-14045
▁Vrem	-14046
▁adap	-14047
▁alph	-14048
▁atom	-14049
▁bapt	-14050
▁brew	-14051
▁buoy	-14052
▁capr	-14053
▁ceil	-14054
▁code	-14055
▁cong	-14056
▁crab	-14057
▁cray	-14058
▁duck	-14059
▁fits	-14060
▁foil	-14061
▁fost	-14062
▁frol	-14063
▁fuse	-14064
▁gasp	-14065
▁goat	-14066
▁gore	-14067
▁guid	-14068
▁gust	-14069
▁hail	-14070
▁halo	-14071
▁harb	-14072
▁hawk	-14073
▁heal	-14074
▁holl	-14075
▁hoop	-14076
▁horn	-14077
▁huck	-14078
▁intu	-14079
▁jobs	-14080
▁lash	-14081
▁lick	-14082
▁litt	-14083
▁logs	-14084
▁lyre	-14085
▁merc	-14086
▁muse	-14087
▁mute	-14088
▁muzz	-14089
▁oars	-14090
▁pear	-14091
▁peer	-14092
▁peev	-14093
▁pest	-14094
▁pige	-14095
▁poll	-14096
▁psal	-14097
▁rack	-14098
▁rave	-14099
▁rele	-14100
▁rept	-14101
▁rive	-14102
▁robe	-14103
▁rugs	-14104
▁scro	-14105
▁shoe	-14106
▁sill	-14107
▁snap	-14108
▁soar	-14109
▁sopr	-14110
▁sous	-14111
▁thud	-14112
▁toes	-14113
▁trun	-14114
▁typh	-14115
▁undo	-14116
▁waft	-14117
▁whee	-14118
▁whit	-14119
▁worm	-14120
▁zero	-14121
Americ	-14122
Surely	-14123
Twenty	-14124
ailing	-14125
asters	-14126
bruary	-14127
called	-14128
clined	-14129
closed	-14130
course	-14131
fectly	-14132
fiancé	-14133
finite	-14134
handle	-14135
ickets	-14136
idolon	-14137
ieving	-14138
igning	-14139
ivalry	-14140
ivouac	-14141
orated	-14142
ounter	-14143
outing	-14144
prises	-14145
rifice	-14146
rushin	-14147
terior	-14148
thread	-14149
veying	-14150
▁2019;	-14151
▁2023.	-14152
▁Adieu	-14153
▁Answe	-14154
▁Breat	-14155
▁CLXXX	-14156
▁Close	-14157
▁Crime	-14158
▁Enter	-14159
▁Found	-14160
▁Gagin	-14161
▁Giant	-14162
▁Italy	-14163
▁Lyska	-14164
▁Maine	-14165
▁Mamma	-14166
▁Music	-14167
▁Recon	-14168
▁Ships	-14169
▁Story	-14170
▁Table	-14171
▁Using	-14172
▁Vigil	-14173
▁amiss	-14174
▁anecd	-14175
▁angle	-14176
▁apron	-14177
▁arous	-14178
▁assem	-14179
▁await	-14180
▁beats	-14181
▁beget	-14182
▁brine	-14183
▁bunch	-14184
▁bushy	-14185
▁categ	-14186
▁crawl	-14187
▁curts	-14188
▁darts	-14189
▁defer	-14190
▁dilig	-14191
▁dusty	-14192
▁elate	-14193
▁enact	-14194
▁feeds	-14195
▁fibre	-14196
▁foret	-14197
▁fract	-14198
▁geran	-14199
▁giddy	-14200
▁grape	-14201
▁hairy	-14202
▁haunt	-14203
▁infer	-14204
▁inher	-14205
▁ivory	-14206
▁jolly	-14207
▁lambs	-14208
▁lanky	-14209
▁leans	-14210
▁lemon	-14211
▁lique	-14212
▁loses	-14213
▁lumps	-14214
▁madly	-14215
▁maize	-14216
▁maker	-14217
▁mangy	-14218
▁medit	-14219
▁motiv	-14220
▁murky	-14221
▁myths	-14222
▁nause	-14223
▁necks	-14224
▁nerve	-14225
▁newer	-14226
▁ninet	-14227
▁noses	-14228
▁orbic	-14229
▁picks	-14230
▁piles	-14231
▁pilot	-14232
▁pivot	-14233
▁plots	-14234
▁pours	-14235
▁puffs	-14236
▁purif	-14237
▁react	-14238
▁reins	-14239
▁rider	-14240
▁rifle	-14241
▁rival	-14242
▁savan	-14243
▁scrib	-14244
▁sedge	-14245
▁shalt	-14246
▁shred	-14247
▁sloop	-14248
▁socks	-14249
▁spray	-14250
▁surge	-14251
▁swamp	-14252
▁swims	-14253
▁theft	-14254
▁torch	-14255
▁tufts	-14256
▁tutor	-14257
▁unspe	-14258
▁verge	-14259
▁weeps	-14260
▁whips	-14261
▁witch	-14262
▁woven	-14263
America	-14264
Nikolay	-14265
alyovka	-14266
aration	-14267
aticism	-14268
aughter	-14269
bendary	-14270
entimes	-14271
entless	-14272
evening	-14273
gonnaya	-14274
herence	-14275
keepers	-14276
onsieur	-14277
portant	-14278
related	-14279
rennial	-14280
sighted	-14281
skinned	-14282
stition	-14283
uishing	-14284
▁Evropi	-14285
▁Friend	-14286
▁Nation	-14287
▁Person	-14288
▁Rather	-14289
▁Review	-14290
▁Taking	-14291
▁Theory	-14292
▁Verily	-14293
▁Voices	-14294
▁Warsaw	-14295
▁Zhukov	-14296
▁abject	-14297
▁aggreg	-14298
▁angels	-14299
▁arctic	-14300
▁arises	-14301
▁ashore	-14302
▁banged	-14303
▁barked	-14304
▁barred	-14305
▁births	-14306
▁blight	-14307
▁blinds	-14308
▁boring	-14309
▁bricks	-14310
▁bustle	-14311
▁button	-14312
▁calmer	-14313
▁casual	-14314
▁cedars	-14315
▁chubby	-14316
▁config	-14317
▁corpor	-14318
▁cravat	-14319
▁cycles	-14320
▁damage	-14321
▁despot	-14322
▁devote	-14323
▁disreg	-14324
▁dissol	-14325
▁doings	-14326
▁doubly	-14327
▁ensure	-14328
▁enumer	-14329
▁exiles	-14330
▁fables	-14331
▁fasten	-14332
▁faster	-14333
▁faults	-14334
▁flings	-14335
▁flocks	-14336
▁fluffy	-14337
▁flutes	-14338
▁fondly	-14339
▁frayed	-14340
▁frying	-14341
▁genial	-14342
▁globes	-14343
▁grieve	-14344
▁grimly	-14345
▁grudge	-14346
▁hanged	-14347
▁homest	-14348
▁humane	-14349
▁hurdle	-14350
▁immeas	-14351
▁incons	-14352
▁indisc	-14353
▁ingred	-14354
▁inputs	-14355
▁jeered	-14356
▁justly	-14357
▁keeper	-14358
▁kicked	-14359
▁lavish	-14360
▁leader	-14361
▁linked	-14362
▁litter	-14363
▁losses	-14364
▁mallet	-14365
▁mildly	-14366
▁namely	-14367
▁napkin	-14368
▁nephew	-14369
▁nobler	-14370
▁notary	-14371
▁oldest	-14372
▁outlet	-14373
▁owners	-14374
▁owning	-14375
▁patted	-14376
▁perfor	-14377
▁pillar	-14378
▁planks	-14379
▁poking	-14380
▁potato	-14381
▁preach	-14382
▁priors	-14383
▁prophe	-14384
▁proves	-14385
▁pursue	-14386
▁resort	-14387
▁scalar	-14388
▁sealed	-14389
▁seizes	-14390
▁shafts	-14391
▁shines	-14392
▁sinews	-14393
▁sobbed	-14394
▁splash	-14395
▁spleen	-14396
▁spoilt	-14397
▁spouse	-14398
▁stalks	-14399
▁stifle	-14400
▁stormy	-14401
▁tastes	-14402
▁testim	-14403
▁tugged	-14404
▁turret	-14405
▁unreal	-14406
▁unrest	-14407
▁vanish	-14408
▁vector	-14409
▁veiled	-14410
▁vigour	-14411
▁vistas	-14412
▁volume	-14413
▁wading	-14414
▁whined	-14415
▁winked	-14416
Vyestnik	-14417
ifferent	-14418
imitable	-14419
machines	-14420
ointment	-14421
olarship	-14422
reatment	-14423
ustrious	-14424
▁(2021).	-14425
▁Adrangi	-14426
▁Asiatic	-14427
▁Benford	-14428
▁Carolin	-14429
▁Chicago	-14430
▁Hearing	-14431
▁Journal	-14432
▁Kingdom	-14433
▁Machine	-14434
▁October	-14435
▁Prairie	-14436
▁Prophet	-14437
▁Subject	-14438
▁Walking	-14439
▁Yevmeny	-14440
▁acquire	-14441
▁admiral	-14442
▁affects	-14443
▁agility	-14444
▁alcohol	-14445
▁annihil	-14446
▁appreci	-14447
▁arguing	-14448
▁artisan	-14449
▁askance	-14450
▁balcony	-14451
▁bawling	-14452
▁bedside	-14453
▁betwixt	-14454
▁billows	-14455
▁breezes	-14456
▁brevity	-14457
▁callous	-14458
▁cannons	-14459
▁carnage	-14460
▁chanced	-14461
▁choices	-14462
▁circuit	-14463
▁civilly	-14464
▁collars	-14465
▁comment	-14466
▁consume	-14467
▁creator	-14468
▁cursing	-14469
▁dangers	-14470
▁darting	-14471
▁dealing	-14472
▁demands	-14473
▁despite	-14474
▁discord	-14475
▁dispens	-14476
▁dispose	-14477
▁edifice	-14478
▁endured	-14479
▁erected	-14480
▁execute	-14481
▁exposed	-14482
▁extends	-14483
▁eyebrow	-14484
▁faction	-14485
▁fainted	-14486
▁fasting	-14487
▁fetched	-14488
▁fishing	-14489
▁flitted	-14490
▁folding	-14491
▁foresee	-14492
▁freight	-14493
▁ghastly	-14494
▁gradual	-14495
▁gratify	-14496
▁grunted	-14497
▁gypsies	-14498
▁hapless	-14499
▁heroism	-14500
▁imitate	-14501
▁impenet	-14502
▁imposed	-14503
▁inexper	-14504
▁infants	-14505
▁irrevoc	-14506
▁jeering	-14507
▁jurymen	-14508
▁knitted	-14509
▁labours	-14510
▁lawless	-14511
▁liberal	-14512
▁martyrs	-14513
▁meanest	-14514
▁mustard	-14515
▁notions	-14516
▁nourish	-14517
▁nursing	-14518
▁oblique	-14519
▁optimal	-14520
▁orators	-14521
▁orchard	-14522
▁outline	-14523
▁palaces	-14524
▁paradox	-14525
▁peering	-14526
▁persuas	-14527
▁pierced	-14528
▁pigeons	-14529
▁pistols	-14530
▁presses	-14531
▁printed	-14532
▁proudly	-14533
▁proving	-14534
▁railing	-14535
▁reaping	-14536
▁release	-14537
▁relying	-14538
▁repeats	-14539
▁replace	-14540
▁robbery	-14541
▁ruffled	-14542
▁rupture	-14543
▁saluted	-14544
▁scented	-14545
▁shyness	-14546
▁sipping	-14547
▁skipped	-14548
▁slapped	-14549
▁snoring	-14550
▁spiders	-14551
▁steward	-14552
▁straits	-14553
▁stuffed	-14554
▁summits	-14555
▁surging	-14556
▁surpass	-14557
▁sweetly	-14558
▁sympath	-14559
▁tailors	-14560
▁tallest	-14561
▁tangled	-14562
▁targets	-14563
▁tearing	-14564
▁technos	-14565
▁tending	-14566
▁testing	-14567
▁titular	-14568
▁touches	-14569
▁unlucky	-14570
▁unnamed	-14571
▁unusual	-14572
▁vehicle	-14573
▁velvety	-14574
▁version	-14575
▁vicious	-14576
▁wasting	-14577
▁whereat	-14578
▁willows	-14579
▁winters	-14580
▁worldly	-14581
attractor	-14582
cheshihin	-14583
stitution	-14584
▁Bolgolam	-14585
▁Broadway	-14586
▁February	-14587
▁Houyhnhn	-14588
▁Noticing	-14589
▁Schiller	-14590
▁Southern	-14591
▁VALENTIN	-14592
▁Voldemar	-14593
▁alphabet	-14594
▁analyses	-14595
▁assessor	-14596
▁athletic	-14597
▁attached	-14598
▁awakened	-14599
▁banished	-14600
▁believes	-14601
▁benefits	-14602
▁biscuits	-14603
▁blissful	-14604
▁boldness	-14605
▁bustling	-14606
▁calmness	-14607
▁caressed	-14608
▁caresses	-14609
▁category	-14610
▁ceilings	-14611
▁chestnut	-14612
▁clenched	-14613
▁clerical	-14614
▁clinking	-14615
▁comforts	-14616
▁crayfish	-14617
▁crushing	-14618
▁cultured	-14619
▁darkened	-14620
▁decently	-14621
▁decisive	-14622
▁defended	-14623
▁demanded	-14624
▁discount	-14625
▁draughts	-14626
▁eligible	-14627
▁equality	-14628
▁esteemed	-14629
▁faltered	-14630
▁fiercely	-14631
▁fleeting	-14632
▁forefeet	-14633
▁fragment	-14634
▁freckles	-14635
▁glimpses	-14636
▁greeting	-14637
▁grunting	-14638
▁headlong	-14639
▁hesitate	-14640
▁honestly	-14641
▁idleness	-14642
▁improved	-14643
▁incomple	-14644
▁incorpor	-14645
▁indolent	-14646
▁interior	-14647
▁interrog	-14648
▁interven	-14649
▁intrepid	-14650
▁labourer	-14651
▁landlord	-14652
▁lifetime	-14653
▁loftiest	-14654
▁lustrous	-14655
▁maturity	-14656
▁meditate	-14657
▁mornings	-14658
▁national	-14659
▁oblivion	-14660
▁openings	-14661
▁ornament	-14662
▁outburst	-14663
▁overview	-14664
▁painters	-14665
▁pancakes	-14666
▁particle	-14667
▁poignant	-14668
▁promptly	-14669
▁proposes	-14670
▁radiance	-14671
▁rattling	-14672
▁receives	-14673
▁recently	-14674
▁refusing	-14675
▁reliance	-14676
▁removing	-14677
▁rendered	-14678
▁renowned	-14679
▁resented	-14680
▁reverent	-14681
▁ridicule	-14682
▁shocking	-14683
▁showered	-14684
▁skipping	-14685
▁smoother	-14686
▁sniffing	-14687
▁speeding	-14688
▁squeaked	-14689
▁startled	-14690
▁steering	-14691
▁stinking	-14692
▁stroking	-14693
▁suspense	-14694
▁terminal	-14695
▁thickest	-14696
▁thunderb	-14697
▁tramping	-14698
▁treasury	-14699
▁treating	-14700
▁trinkets	-14701
▁trudging	-14702
▁tumbling	-14703
▁unawares	-14704
▁unfolded	-14705
▁variance	-14706
▁wanderer	-14707
▁westward	-14708
▁whistled	-14709
▁whistles	-14710
▁withhold	-14711
▁womanish	-14712
Appearance	-14713
Understand	-14714
ologically	-14715
▁Bluebeard	-14716
▁Gentlemen	-14717
▁Knowledge	-14718
▁Southwest	-14719
▁Vahrushin	-14720
▁Vremensky	-14721
▁Wednesday	-14722
▁abundance	-14723
▁attitudes	-14724
▁awkwardly	-14725
▁balancing	-14726
▁barbarous	-14727
▁batteries	-14728
▁beckoning	-14729
▁blessings	-14730
▁borrowing	-14731
▁chemistry	-14732
▁conductor	-14733
▁crucified	-14734
▁cultivate	-14735
▁deceiving	-14736
▁decentral	-14737
▁declaring	-14738
▁declining	-14739
▁defending	-14740
▁disgusted	-14741
▁doubtless	-14742
▁downturns	-14743
▁eagerness	-14744
▁efficient	-14745
▁elsewhere	-14746
▁employing	-14747
▁engineers	-14748
[...]
